▁xxunk	0
▁xxpad	0
▁xxbos	0
▁xxeos	0
▁xxfld	0
▁xxrep	0
▁xxwrep	0
▁xxup	0
▁xxmaj	0
<unk>	0
.	-3.3308
▁the	-3.35272
,	-3.47603
s	-3.62154
▁a	-3.8645
▁and	-4.0698
▁of	-4.07784
▁to	-4.07871
'	-4.13035
br	-4.32248
▁/>	-4.35105
<	-4.39291
▁is	-4.39816
▁I	-4.53193
▁in	-4.55862
▁it	-4.58005
▁that	-4.73503
▁this	-4.75451
t	-4.79905
▁was	-5.01313
▁movie	-5.02225
ing	-5.05578
▁	-5.11967
-	-5.14006
▁for	-5.27681
▁with	-5.29185
▁film	-5.29299
ed	-5.37654
▁The	-5.39055
▁but	-5.44432
▁on	-5.47554
▁you	-5.5094
▁have	-5.51985
▁"	-5.52402
▁as	-5.54057
▁be	-5.54069
ly	-5.57015
▁(	-5.58312
▁not	-5.60841
▁are	-5.63083
"	-5.74038
▁one	-5.76993
d	-5.81614
▁like	-5.88533
▁he	-5.93279
▁his	-5.94321
▁they	-5.9559
)	-5.95726
▁all	-5.96103
▁by	-5.96233
▁so	-5.98544
▁an	-5.98846
y	-6.0097
▁just	-6.01042
▁at	-6.03176
▁who	-6.06736
▁from	-6.06822
▁or	-6.10015
▁out	-6.10718
?	-6.1304
▁about	-6.14361
e	-6.16232
▁It	-6.20834
▁some	-6.22268
▁has	-6.24443
▁can	-6.26972
!	-6.29555
▁would	-6.29767
▁bad	-6.30164
n	-6.30794
▁good	-6.32591
▁even	-6.34266
▁her	-6.36207
▁This	-6.38777
▁there	-6.39073
▁more	-6.3974
▁what	-6.40052
▁up	-6.41865
▁were	-6.42695
▁if	-6.4356
▁no	-6.44183
m	-6.44894
▁really	-6.46301
▁me	-6.46898
▁only	-6.47893
▁time	-6.4959
▁very	-6.53205
...	-6.53704
The	-6.57855
▁had	-6.58879
▁get	-6.5895
▁see	-6.61887
I	-6.62583
er	-6.62908
▁their	-6.63699
▁when	-6.64084
▁than	-6.65119
▁much	-6.65689
▁make	-6.6712
▁my	-6.6846
▁do	-6.68787
▁A	-6.70186
▁story	-6.70321
▁which	-6.70819
▁been	-6.71335
▁she	-6.71497
▁could	-6.7217
ve	-6.73985
▁people	-6.74736
re	-6.76721
▁plot	-6.77184
a	-6.7781
▁because	-6.78571
▁into	-6.78747
▁-	-6.78982
▁other	-6.80362
▁don	-6.82411
▁made	-6.82897
▁acting	-6.83006
▁any	-6.8373
:	-6.8762
▁how	-6.90336
▁way	-6.90389
▁too	-6.92013
▁we	-6.9584
▁will	-6.97701
▁them	-6.98779
▁seen	-6.99957
▁think	-7.0052
▁characters	-7.01464
▁well	-7.01552
▁most	-7.02874
▁him	-7.03429
▁better	-7.03861
▁ever	-7.04449
▁character	-7.04551
▁And	-7.04783
▁off	-7.05167
▁movies	-7.05303
▁know	-7.06086
▁over	-7.06098
▁watch	-7.06802
▁then	-7.08626
▁first	-7.09412
▁did	-7.13155
▁being	-7.14015
▁show	-7.14964
▁two	-7.15549
▁where	-7.1603
▁'	-7.16913
▁after	-7.17611
es	-7.18201
▁should	-7.19394
▁your	-7.19395
▁thing	-7.19453
▁look	-7.19718
;	-7.19869
▁i	-7.20503
▁scenes	-7.20738
▁But	-7.21524
▁never	-7.216
r	-7.22194
▁many	-7.23227
▁There	-7.2365
▁something	-7.23802
p	-7.23885
▁say	-7.24453
▁If	-7.24544
in	-7.24997
or	-7.25308
▁end	-7.2656
▁scene	-7.27666
▁watching	-7.2781
▁<	-7.27937
l	-7.28235
▁didn	-7.29036
▁actually	-7.29646
▁He	-7.30417
▁actors	-7.31195
▁take	-7.31444
▁films	-7.31671
▁also	-7.31712
▁go	-7.32449
▁S	-7.33297
▁doesn	-7.34029
▁script	-7.34118
▁why	-7.34411
).	-7.34682
▁great	-7.34924
▁does	-7.35453
▁worst	-7.36315
▁nothing	-7.36322
al	-7.36345
▁through	-7.36589
▁such	-7.38299
▁life	-7.38557
o	-7.4044
▁going	-7.40689
▁little	-7.41452
▁love	-7.42715
i	-7.42869
▁lot	-7.45095
▁In	-7.45972
▁funny	-7.46273
▁back	-7.46299
▁find	-7.4652
▁B	-7.46805
c	-7.47241
▁here	-7.47903
▁these	-7.48045
S	-7.49238
A	-7.49801
▁give	-7.49829
ll	-7.50706
▁un	-7.52646
▁seem	-7.52651
▁guy	-7.53275
▁pretty	-7.54243
▁minutes	-7.54514
▁still	-7.54577
▁down	-7.54623
▁man	-7.54945
and	-7.5543
▁those	-7.56601
▁want	-7.56924
/	-7.573
▁director	-7.57418
),	-7.57858
▁work	-7.58281
▁thought	-7.59778
▁got	-7.61473
▁real	-7.61515
▁same	-7.62929
▁its	-7.63801
▁another	-7.6431
▁while	-7.64797
▁again	-7.65138
▁part	-7.66816
▁though	-7.66981
▁enough	-7.67003
▁before	-7.67014
▁every	-7.67048
▁seems	-7.67057
▁old	-7.67718
te	-7.67759
▁interesting	-7.67985
▁C	-7.68087
▁least	-7.68144
▁whole	-7.68323
st	-7.68998
▁few	-7.69301
▁fact	-7.6957
▁around	-7.69696
en	-7.70612
the	-7.70874
▁hard	-7.71287
▁point	-7.71368
▁isn	-7.71718
▁quite	-7.7205
&	-7.72841
on	-7.74006
▁kind	-7.74051
▁makes	-7.74058
▁cast	-7.75894
▁anything	-7.76104
▁action	-7.76165
▁waste	-7.76575
▁long	-7.76859
▁original	-7.76926
▁poor	-7.77403
it	-7.77557
▁What	-7.77955
▁might	-7.78193
▁book	-7.78948
▁far	-7.79192
▁big	-7.79471
▁things	-7.80025
▁best	-7.80136
▁P	-7.80289
▁done	-7.80967
▁reason	-7.8111
▁awful	-7.81193
▁bit	-7.82424
an	-7.83533
▁years	-7.83866
▁rather	-7.84294
▁re	-7.84409
h	-7.84953
▁boring	-7.85198
b	-7.85653
▁terrible	-7.85664
▁come	-7.85731
C	-7.85894
▁They	-7.86285
▁horror	-7.87068
▁trying	-7.87498
▁2	-7.87761
▁M	-7.87931
▁money	-7.87958
▁must	-7.87966
▁right	-7.88021
ion	-7.88023
▁saw	-7.88427
▁believe	-7.89389
▁now	-7.89491
▁half	-7.89849
▁worse	-7.90314
▁gets	-7.90611
▁feel	-7.90632
▁stupid	-7.90754
le	-7.91168
▁without	-7.92923
▁idea	-7.93014
▁put	-7.93171
▁You	-7.93363
▁last	-7.93724
▁wasn	-7.93846
▁making	-7.93858
▁am	-7.94596
as	-7.94924
▁almost	-7.95206
g	-7.95607
▁F	-7.95636
▁effects	-7.95831
ar	-7.97123
▁anyone	-7.98456
se	-7.99064
ers	-7.99069
T	-7.99421
--	-8.0028
▁sure	-8.00898
▁main	-8.01032
▁So	-8.01148
▁That	-8.01486
ra	-8.0219
▁looking	-8.02375
▁dialogue	-8.02485
able	-8.02818
▁us	-8.02866
▁low	-8.0294
▁TV	-8.03113
▁between	-8.03565
▁role	-8.03627
▁probably	-8.04124
▁new	-8.042
▁girl	-8.04216
▁T	-8.04392
▁She	-8.0655
▁someone	-8.07012
D	-8.07103
▁set	-8.07192
▁woman	-8.07477
M	-8.07513
ce	-8.07962
▁comedy	-8.08044
▁may	-8.08057
▁looks	-8.08169
▁both	-8.08406
▁own	-8.08594
u	-8.08964
This	-8.0915
th	-8.09289
▁times	-8.09531
▁screen	-8.09729
▁goes	-8.09923
▁away	-8.09989
▁music	-8.1028
▁young	-8.103
▁place	-8.11791
▁fun	-8.11937
▁watched	-8.12235
el	-8.12555
▁course	-8.12689
".	-8.13023
▁E	-8.13063
R	-8.13111
▁since	-8.13199
▁found	-8.13312
▁budget	-8.13437
▁mean	-8.13528
▁read	-8.13893
▁supposed	-8.13959
ur	-8.14222
▁10	-8.14942
▁guess	-8.15719
▁fan	-8.15769
ic	-8.16357
▁For	-8.16852
▁worth	-8.1733
▁sense	-8.17571
▁shot	-8.18156
P	-8.18164
▁As	-8.18186
▁try	-8.18235
▁ending	-8.18604
man	-8.1928
▁horrible	-8.19481
k	-8.19658
▁completely	-8.19692
▁audience	-8.1999
▁hav	-8.20004
▁left	-8.20122
▁version	-8.20122
▁either	-8.20123
▁wrong	-8.20123
▁couldn	-8.203
to	-8.20647
▁actor	-8.20829
▁rest	-8.20878
",	-8.21322
f	-8.21356
▁help	-8.21375
▁else	-8.21418
▁Not	-8.21586
▁instead	-8.22076
▁start	-8.2245
B	-8.226
▁tell	-8.23393
▁lead	-8.23602
ness	-8.24076
▁world	-8.24107
▁American	-8.24836
▁camera	-8.25399
▁performance	-8.25455
▁keep	-8.26084
▁series	-8.26119
▁played	-8.26556
▁black	-8.26802
▁three	-8.27459
▁sound	-8.2756
▁let	-8.27687
▁expect	-8.2838
▁different	-8.28872
▁understand	-8.28902
us	-8.29433
O	-8.30279
▁everyone	-8.30302
▁use	-8.30362
▁3	-8.30661
▁everything	-8.31
▁flick	-8.31169
▁No	-8.31547
▁Man	-8.31738
▁face	-8.3198
▁less	-8.3224
ting	-8.3241
▁DVD	-8.32435
(	-8.33147
▁said	-8.33155
▁always	-8.33207
▁line	-8.33219
est	-8.33272
▁special	-8.33309
▁high	-8.33383
at	-8.33476
ist	-8.3388
▁production	-8.33916
is	-8.34367
each	-8.3451
▁under	-8.34688
▁need	-8.35212
▁play	-8.35225
▁1	-8.35339
▁near	-8.35377
▁simply	-8.35379
▁--	-8.35638
▁day	-8.35892
▁comes	-8.36006
▁short	-8.36129
It	-8.36387
▁Hollywood	-8.36897
▁went	-8.36935
▁de	-8.36946
ie	-8.37135
less	-8.37203
▁laugh	-8.3765
▁R	-8.37826
▁used	-8.37951
N	-8.37963
▁doing	-8.38819
▁To	-8.38855
▁given	-8.38856
▁absolute	-8.39194
▁direction	-8.39208
▁Even	-8.39275
▁ga	-8.39342
▁Well	-8.39352
▁getting	-8.39379
▁crap	-8.39525
▁D	-8.39537
ir	-8.39859
▁couple	-8.39975
ri	-8.40125
▁name	-8.40195
▁head	-8.40445
▁friend	-8.40515
▁However	-8.41661
▁totally	-8.41744
▁piece	-8.42056
▁once	-8.42152
▁Why	-8.42518
▁wanted	-8.42642
ne	-8.43226
▁dur	-8.43283
▁care	-8.43327
▁case	-8.44005
▁yet	-8.44013
▁maybe	-8.44033
▁act	-8.4437
▁One	-8.44406
▁mind	-8.44439
▁second	-8.44579
▁On	-8.44671
▁family	-8.44808
▁We	-8.44998
ity	-8.45363
▁sex	-8.45435
▁run	-8.45547
▁together	-8.45622
▁title	-8.45652
▁video	-8.45669
▁school	-8.45674
▁When	-8.45742
L	-8.45919
▁O	-8.45986
▁lines	-8.46152
▁job	-8.46242
▁example	-8.46247
▁decent	-8.46488
▁4	-8.47211
▁person	-8.47214
▁plays	-8.47819
▁seeing	-8.48006
▁death	-8.48144
▁annoying	-8.48173
▁problem	-8.48905
up	-8.48931
▁hour	-8.48967
▁home	-8.48976
▁himself	-8.49003
▁ridiculous	-8.49005
la	-8.50156
▁enjoy	-8.50207
w	-8.50603
▁sort	-8.50644
▁truly	-8.50729
▁itself	-8.50798
▁THE	-8.50805
▁year	-8.5081
▁thinking	-8.50983
ies	-8.51068
ch	-8.51094
▁co	-8.5112
▁along	-8.51184
▁entire	-8.5122
ro	-8.51597
▁father	-8.51647
▁came	-8.51733
▁killed	-8.52067
▁wonder	-8.5262
ry	-8.52792
▁nice	-8.52991
▁Don	-8.53045
▁star	-8.53102
▁My	-8.53132
▁shows	-8.53193
▁later	-8.53444
▁friends	-8.53711
ment	-8.54637
▁called	-8.54717
▁All	-8.55484
▁cheap	-8.56112
▁stuff	-8.56113
one	-8.56123
▁quality	-8.56131
▁writing	-8.56153
▁John	-8.56175
▁monster	-8.56181
▁our	-8.56273
z	-8.56482
▁kill	-8.56703
▁G	-8.56802
▁throw	-8.57039
▁night	-8.58109
ant	-8.58168
▁turn	-8.5862
▁Then	-8.58682
G	-8.59047
▁H	-8.59242
▁car	-8.59384
▁close	-8.5949
▁small	-8.59868
▁true	-8.59899
▁house	-8.59968
ous	-8.60151
ck	-8.60267
▁wouldn	-8.6071
▁however	-8.60875
▁sit	-8.60886
▁matter	-8.61024
▁L	-8.61337
▁remember	-8.61801
▁etc	-8.61806
▁tries	-8.61809
▁written	-8.6188
▁rent	-8.62172
ble	-8.62637
▁women	-8.62796
▁	-8.62796
▁rating	-8.62888
▁hand	-8.63462
▁already	-8.63771
▁predictable	-8.63783
▁guys	-8.63832
ation	-8.64222
▁full	-8.64568
ul	-8.64751
▁dialog	-8.64764
▁especially	-8.64878
▁lack	-8.64998
▁At	-8.65229
▁slow	-8.65401
▁hope	-8.65499
▁kids	-8.65595
▁manage	-8.65622
but	-8.65739
not	-8.66305
▁felt	-8.66802
▁several	-8.66802
▁beginning	-8.66802
▁5	-8.6701
▁won	-8.67038
he	-8.67434
▁female	-8.67832
▁hate	-8.68035
▁saying	-8.68446
▁After	-8.68991
no	-8.69463
▁classic	-8.69604
ish	-8.69687
ok	-8.69939
fi	-8.70024
▁How	-8.70053
▁next	-8.7099
▁dead	-8.71052
▁dumb	-8.71076
▁f	-8.7185
▁actress	-8.72038
▁fair	-8.72066
▁silly	-8.72066
▁W	-8.72169
▁recommend	-8.72639
▁cut	-8.73069
▁interest	-8.73149
▁genre	-8.73153
▁mother	-8.73215
▁jokes	-8.73316
▁war	-8.74067
▁wasted	-8.74104
v	-8.74231
▁white	-8.74295
be	-8.74304
▁based	-8.74311
▁town	-8.74385
▁certainly	-8.74458
▁bring	-8.74574
▁men	-8.74586
▁side	-8.74701
▁stars	-8.74922
F	-8.75184
▁bunch	-8.75364
▁disappointed	-8.75391
▁possible	-8.75393
▁lame	-8.75428
▁starts	-8.75445
▁Oh	-8.75661
▁beautiful	-8.76084
▁writer	-8.76203
▁fight	-8.76312
▁save	-8.76372
In	-8.76593
▁hours	-8.76606
▁mention	-8.77164
▁attempt	-8.77216
▁cheesy	-8.7764
▁type	-8.7771
▁God	-8.77781
▁killer	-8.77978
▁obvious	-8.78439
▁Mr	-8.78595
."	-8.78726
▁lost	-8.7879
▁Also	-8.78835
▁K	-8.78839
▁entertaining	-8.78851
▁Some	-8.78956
▁complete	-8.79272
me	-8.79752
son	-8.79784
▁cinema	-8.79925
▁dull	-8.79949
▁children	-8.79953
ful	-8.79984
▁gore	-8.8044
▁moments	-8.80542
▁picture	-8.80764
▁boy	-8.80949
▁Do	-8.81104
▁myself	-8.81123
▁drama	-8.81156
▁wife	-8.81172
▁With	-8.81199
il	-8.81858
▁number	-8.81957
▁voice	-8.81965
▁sequel	-8.81989
H	-8.82161
▁top	-8.822
▁late	-8.8226
▁OK	-8.82381
▁involved	-8.82397
ta	-8.83168
▁effort	-8.83215
▁leave	-8.83246
um	-8.83317
Y	-8.83418
▁spend	-8.83554
▁local	-8.83815
ian	-8.84202
▁behind	-8.84727
ty	-8.85041
E	-8.85375
▁non	-8.85522
There	-8.85802
▁joke	-8.85824
▁extreme	-8.85961
▁novel	-8.86435
▁call	-8.86561
▁human	-8.87007
▁performances	-8.87118
▁evil	-8.87237
▁daughter	-8.87245
▁cool	-8.87276
▁Unfortunately	-8.87351
ther	-8.87561
▁dog	-8.87619
▁happened	-8.8767
`	-8.87858
▁final	-8.87868
3	-8.88093
et	-8.88245
▁humor	-8.88457
▁history	-8.88477
▁gun	-8.88488
▁violence	-8.88488
▁often	-8.88532
▁happen	-8.88541
▁mess	-8.88564
▁Just	-8.88616
ma	-8.88998
▁stop	-8.89043
▁p	-8.89159
▁started	-8.89387
ary	-8.89403
▁playing	-8.89575
▁weak	-8.89776
ably	-8.8978
▁throughout	-8.89819
▁parts	-8.89823
▁exactly	-8.8983
▁pointless	-8.89835
▁U	-8.89852
▁happens	-8.89877
▁cop	-8.89891
▁style	-8.89932
▁deal	-8.90093
▁heard	-8.90165
▁fans	-8.90171
▁talent	-8.90504
▁heart	-8.90696
▁wants	-8.90759
▁hero	-8.90956
▁episode	-8.9098
▁game	-8.90986
▁group	-8.91059
▁talk	-8.91475
▁obviously	-8.91494
ia	-8.91638
▁turned	-8.91762
If	-8.92042
▁turns	-8.92135
▁become	-8.92405
if	-8.92562
▁liked	-8.93292
And	-8.93314
ter	-8.93361
!!!	-8.93482
▁experience	-8.93572
▁poorly	-8.93592
▁stand	-8.9368
▁themselves	-8.93712
▁early	-8.93736
▁problems	-8.93852
▁finally	-8.94114
lo	-8.94419
x	-8.94492
for	-8.94805
W	-8.94836
▁yourself	-8.95065
▁tried	-8.95095
▁stay	-8.95102
▁pay	-8.95156
ally	-8.95166
▁Re	-8.95388
ton	-8.95402
▁His	-8.95415
which	-8.9583
▁t	-8.95856
▁Now	-8.96361
▁child	-8.96429
▁running	-8.96429
▁son	-8.96538
▁Or	-8.96583
▁Ha	-8.96807
▁b	-8.96848
▁pick	-8.97156
1	-8.97172
▁dark	-8.97665
▁review	-8.97782
K	-8.97805
▁huge	-8.97827
▁perhaps	-8.97871
▁Of	-8.97899
out	-8.98335
▁talking	-8.98503
But	-8.98641
ive	-8.9866
de	-8.98863
U	-8.98914
▁ten	-8.98949
▁potential	-8.99225
▁knew	-8.99225
▁self	-8.99274
▁viewer	-8.99467
▁word	-8.9947
▁none	-8.99534
▁directed	-8.9955
▁fails	-8.99956
so	-9.00488
▁doubt	-9.00654
▁except	-9.00688
▁becomes	-9.00696
▁level	-9.00793
▁although	-9.00815
▁order	-9.00826
▁seriously	-9.01006
▁comments	-9.01439
ha	-9.01816
▁words	-9.01926
▁fine	-9.02049
▁trash	-9.02116
▁coming	-9.0221
▁room	-9.02236
▁kid	-9.0237
▁hit	-9.02396
▁minute	-9.02483
ig	-9.02561
▁feeling	-9.02754
▁Dr	-9.02796
▁feature	-9.02949
▁hell	-9.03131
of	-9.03204
▁clear	-9.03291
V	-9.0334
▁write	-9.03547
▁sorry	-9.03574
▁wish	-9.03586
▁storyline	-9.03671
▁scary	-9.03691
▁apparently	-9.03725
▁quickly	-9.0373
▁relationship	-9.03834
▁credits	-9.03983
▁ex	-9.04035
▁career	-9.04045
side	-9.04159
▁Ed	-9.04469
What	-9.04469
▁blood	-9.04838
▁reviews	-9.0493
!!	-9.04965
▁straight	-9.05066
▁beyond	-9.05067
▁Michael	-9.05179
un	-9.0555
?)	-9.05618
id	-9.05681
▁others	-9.05911
▁shoot	-9.05985
▁taken	-9.06096
▁decide	-9.06378
▁police	-9.06582
▁chance	-9.06584
▁ago	-9.06591
▁N	-9.06628
▁decided	-9.06914
▁begin	-9.06969
▁song	-9.07186
▁sad	-9.07192
▁eyes	-9.07354
*	-9.07422
▁past	-9.07875
▁badly	-9.08099
▁pathetic	-9.08105
▁NOT	-9.08172
▁across	-9.08204
▁First	-9.08321
way	-9.08364
▁Robert	-9.08487
▁opening	-9.08584
▁toward	-9.08672
im	-9.08851
▁appears	-9.08945
ling	-9.09001
▁serious	-9.09297
ge	-9.09307
▁release	-9.09381
time	-9.09537
▁add	-9.09651
▁IMDb	-9.09682
▁project	-9.09683
▁light	-9.09746
▁live	-9.09857
▁shots	-9.10046
▁avoid	-9.10074
li	-9.10217
▁Mo	-9.10304
▁die	-9.10474
▁unti	-9.10534
▁days	-9.1055
▁says	-9.10839
!)	-9.1095
▁fall	-9.1123
▁opinion	-9.11269
▁excellent	-9.11269
▁alone	-9.11274
▁spent	-9.11276
▁support	-9.11294
▁power	-9.11803
▁upon	-9.11935
aybe	-9.12048
▁hold	-9.12229
▁meet	-9.12416
▁girls	-9.12652
am	-9.12659
▁plain	-9.12897
▁definitely	-9.1292
▁bother	-9.12963
▁somehow	-9.12982
▁forced	-9.13028
▁fake	-9.13083
co	-9.13546
▁Be	-9.13817
ey	-9.13886
▁learn	-9.1405
▁murder	-9.14062
▁n	-9.14458
▁attention	-9.14522
▁gang	-9.14535
▁weird	-9.14549
▁age	-9.14744
▁using	-9.14846
▁clearly	-9.14953
▁g	-9.14971
ay	-9.15473
like	-9.15544
▁...	-9.15554
▁check	-9.15698
▁New	-9.16151
▁above	-9.1619
▁single	-9.16197
▁nudity	-9.16204
▁five	-9.1621
▁box	-9.16228
▁husband	-9.16234
▁editing	-9.16241
▁reading	-9.16301
▁usually	-9.1655
vi	-9.16621
▁20	-9.16771
▁Me	-9.1705
So	-9.17052
mp	-9.1735
▁nor	-9.17403
▁cover	-9.17404
▁total	-9.17587
▁De	-9.17667
▁free	-9.17677
▁middle	-9.17883
▁basically	-9.17892
▁male	-9.18033
▁forward	-9.18144
▁missing	-9.18247
▁comment	-9.18306
▁e	-9.18316
ol	-9.18568
▁lives	-9.19075
2	-9.19318
▁known	-9.19483
▁mostly	-9.19486
▁major	-9.19585
▁imagine	-9.19607
▁material	-9.19607
▁positive	-9.19607
giving	-9.19609
▁somewhat	-9.19721
▁body	-9.19804
▁art	-9.19875
▁appear	-9.19976
▁sequences	-9.20235
▁hear	-9.20396
▁moment	-9.20472
▁needs	-9.20598
pe	-9.20636
▁soon	-9.20749
▁V	-9.20899
▁laughing	-9.21075
▁fire	-9.21163
▁told	-9.21164
!"	-9.21169
▁strange	-9.21214
▁television	-9.21362
▁brain	-9.21367
▁David	-9.2141
▁barely	-9.21422
▁eye	-9.21697
mo	-9.21916
▁gay	-9.21932
▁follow	-9.22089
age	-9.22402
▁falls	-9.2256
▁canno	-9.22569
na	-9.22602
ought	-9.22729
▁strong	-9.23147
▁subject	-9.23149
▁taking	-9.23156
▁Russian	-9.23198
▁odd	-9.23223
▁laughable	-9.23225
▁water	-9.23265
▁thriller	-9.23282
▁wear	-9.23329
ard	-9.23454
▁pro	-9.23814
▁Wood	-9.2407
▁break	-9.24078
▁c	-9.24197
▁change	-9.24244
▁needed	-9.24276
ho	-9.24429
▁perfect	-9.24577
▁slight	-9.24947
▁previous	-9.24965
▁utter	-9.24967
▁future	-9.24967
▁footage	-9.24968
▁four	-9.24987
▁British	-9.24993
▁documentary	-9.25005
▁space	-9.25026
▁anyway	-9.25094
▁80	-9.25218
til	-9.25756
▁buy	-9.26153
▁wait	-9.26161
▁speak	-9.26193
hi	-9.26392
ism	-9.26418
▁La	-9.26505
▁large	-9.26736
▁admit	-9.26813
▁garbage	-9.26817
▁cinematography	-9.26817
▁stories	-9.26818
▁remake	-9.26832
▁English	-9.26835
▁team	-9.26836
▁Instead	-9.26868
▁overall	-9.26887
▁please	-9.26894
▁failed	-9.26985
▁Yes	-9.27004
▁bar	-9.27081
▁haven	-9.27089
▁particularly	-9.27136
?"	-9.27461
▁due	-9.27526
▁sucks	-9.27573
line	-9.27679
6	-9.27919
▁sub	-9.28026
▁works	-9.28049
nt	-9.282
tion	-9.28286
▁despi	-9.28417
▁figure	-9.28433
▁agree	-9.2849
▁realize	-9.28509
▁respect	-9.28702
▁George	-9.28704
▁mo	-9.28727
▁Jack	-9.28769
▁Movie	-9.28802
▁setting	-9.28803
▁stage	-9.28821
▁hot	-9.28899
▁parents	-9.29046
▁killing	-9.29185
▁walk	-9.29566
▁score	-9.29629
▁result	-9.29818
....	-9.29833
▁An	-9.30171
▁Joe	-9.30281
▁comic	-9.30354
▁kept	-9.30627
▁trouble	-9.30627
▁store	-9.30648
▁simple	-9.30675
▁sci	-9.30695
▁important	-9.30706
▁shame	-9.30809
▁provide	-9.30889
▁w	-9.31141
ine	-9.3178
▁sequence	-9.31878
▁features	-9.32269
ld	-9.32346
tic	-9.32464
▁public	-9.32588
▁sister	-9.3259
▁purpose	-9.3259
▁crime	-9.32593
▁sick	-9.32607
▁Van	-9.32633
▁concept	-9.32714
▁whatever	-9.32743
▁Most	-9.32764
ious	-9.32779
▁events	-9.33025
oo	-9.33062
▁sp	-9.33064
▁writers	-9.33344
▁named	-9.33347
ical	-9.33475
▁fit	-9.33649
▁enjoyed	-9.33658
▁move	-9.33905
▁hands	-9.3396
per	-9.34066
▁Her	-9.34204
do	-9.3445
▁convincing	-9.34588
▁front	-9.34588
▁premise	-9.34592
▁typical	-9.34619
go	-9.34635
▁average	-9.34643
▁wonderful	-9.34861
▁among	-9.34864
ick	-9.34888
▁copy	-9.34979
▁remind	-9.35185
▁attempts	-9.35294
ow	-9.35374
▁includ	-9.35433
▁direct	-9.35502
ated	-9.35917
▁message	-9.35936
▁points	-9.36028
making	-9.36098
der	-9.36153
▁drive	-9.36181
▁shown	-9.36224
▁similar	-9.36224
▁usual	-9.36244
▁certain	-9.36245
ate	-9.36304
▁chase	-9.36334
em	-9.36359
▁create	-9.36378
▁Ma	-9.36384
▁possibly	-9.36629
▁soundtrack	-9.3663
▁produced	-9.3677
ley	-9.37511
4	-9.37642
▁highly	-9.37716
5	-9.37807
▁party	-9.37982
▁brother	-9.38074
▁filmmakers	-9.38089
▁island	-9.38099
▁accent	-9.38105
▁situation	-9.38107
▁credit	-9.38177
▁ended	-9.38391
land	-9.38404
who	-9.38477
▁America	-9.38564
▁fast	-9.38572
▁producers	-9.38609
▁pull	-9.38712
▁living	-9.38713
▁development	-9.38722
▁train	-9.38738
▁Scott	-9.38744
▁Richard	-9.38757
▁enjoyable	-9.38792
led	-9.38804
▁James	-9.38833
▁Let	-9.38855
My	-9.38975
▁surprised	-9.38975
▁released	-9.39173
▁forget	-9.39374
▁talented	-9.39472
nd	-9.39527
▁flat	-9.39656
▁explain	-9.39744
io	-9.39798
▁elements	-9.39908
we	-9.40068
▁expected	-9.4013
▁super	-9.40179
▁inside	-9.40224
die	-9.40285
▁effect	-9.40413
ci	-9.40439
To	-9.40511
▁showing	-9.40539
ever	-9.40598
▁cause	-9.40715
▁earlier	-9.4084
▁whatsoever	-9.4084
▁modern	-9.4084
▁suspense	-9.4084
▁period	-9.40841
▁mix	-9.40841
▁entertainment	-9.40844
▁disappointing	-9.40917
ex	-9.40977
▁Whil	-9.41047
▁prove	-9.41134
ster	-9.41387
▁Sa	-9.41681
▁air	-9.41789
▁Go	-9.41833
▁deliver	-9.41949
▁Le	-9.42012
by	-9.42149
▁30	-9.42361
▁escape	-9.42436
▁value	-9.42513
▁sexual	-9.42595
▁actual	-9.42632
▁whe	-9.42767
ke	-9.42853
erhaps	-9.42923
▁pass	-9.42952
▁background	-9.43014
▁redeem	-9.43014
▁okay	-9.43014
▁country	-9.43019
▁bigge	-9.43062
▁nowhere	-9.43079
▁pre	-9.43185
▁loved	-9.43191
▁unless	-9.43231
▁reasons	-9.43274
▁filmed	-9.43293
▁J	-9.43716
ag	-9.44059
▁drag	-9.44221
▁sets	-9.44621
va	-9.44764
▁kills	-9.44973
▁viewers	-9.45008
▁neither	-9.45236
▁jump	-9.45239
▁stick	-9.45243
▁slasher	-9.45264
▁amount	-9.4527
As	-9.45319
▁From	-9.45339
com	-9.45562
▁d	-9.45797
▁open	-9.45917
▁theater	-9.46131
movie	-9.46466
▁today	-9.46543
ent	-9.46891
▁zombie	-9.47192
this	-9.47275
▁dance	-9.47371
tter	-9.47433
▁disappointment	-9.47511
▁girlfriend	-9.47516
aked	-9.47526
▁dreadful	-9.47548
▁catch	-9.4756
▁Like	-9.47624
▁bored	-9.47705
ice	-9.47712
▁reality	-9.47726
▁90	-9.47813
▁yes	-9.47861
▁building	-9.47861
▁sometimes	-9.48049
▁7	-9.48061
▁Who	-9.48083
▁class	-9.48258
▁shooting	-9.48491
▁members	-9.48688
▁May	-9.4878
▁twist	-9.49016
▁German	-9.49181
▁songs	-9.49243
▁mistake	-9.49256
Don	-9.49313
well	-9.49367
even	-9.49383
que	-9.49633
red	-9.49718
▁suggest	-9.49834
▁screenplay	-9.49845
▁creepy	-9.49907
▁Peter	-9.49942
▁ship	-9.4996
▁gone	-9.50056
mm	-9.50395
▁considering	-9.50427
ner	-9.50523
▁entirely	-9.50873
ized	-9.51022
▁holes	-9.51046
off	-9.51069
nce	-9.51093
ade	-9.51099
ence	-9.51309
▁Every	-9.51467
ng	-9.51473
came	-9.51616
budget	-9.51616
▁By	-9.51716
▁discover	-9.5178
over	-9.51798
▁painful	-9.51834
▁post	-9.51875
▁surprise	-9.51937
▁camp	-9.52006
▁count	-9.52055
all	-9.52074
▁color	-9.52199
	-9.52215
▁difficult	-9.52215
▁animation	-9.52215
▁Oscar	-9.52215
▁incredibly	-9.52216
▁indeed	-9.52224
▁track	-9.5226
▁Although	-9.52283
▁lady	-9.52321
▁Star	-9.52327
▁Bill	-9.52389
▁anti	-9.52436
▁r	-9.5244
▁sh	-9.52472
star	-9.52649
▁Did	-9.52709
▁El	-9.52911
▁?	-9.52915
▁makers	-9.53106
▁view	-9.53274
ot	-9.53435
▁Y	-9.53646
ap	-9.53944
▁con	-9.54035
ily	-9.54073
▁red	-9.54125
▁kick	-9.5416
▁suffer	-9.54169
▁finish	-9.54181
▁historical	-9.54251
▁compare	-9.54291
All	-9.54562
▁basic	-9.54642
▁confusing	-9.54654
▁truth	-9.54654
▁excuse	-9.54654
▁alien	-9.54656
▁pure	-9.54667
▁easily	-9.54688
▁anymore	-9.54705
▁crew	-9.54729
▁notice	-9.54745
▁di	-9.54893
8	-9.54996
▁outside	-9.55031
▁zombies	-9.55079
7	-9.55524
▁Bo	-9.55551
▁interested	-9.55717
▁form	-9.55861
ance	-9.55983
work	-9.56137
▁6	-9.5629
top	-9.56341
▁theme	-9.56571
▁roles	-9.56895
’	-9.57154
▁French	-9.57154
▁Italian	-9.57154
▁depth	-9.57163
▁impression	-9.57164
▁crappy	-9.57167
les	-9.57202
▁otherwise	-9.57204
▁Jim	-9.57232
▁Black	-9.57285
▁hair	-9.57299
▁unfortunately	-9.57372
▁considered	-9.57617
▁v	-9.57948
▁directing	-9.5796
▁means	-9.58288
old	-9.58412
▁mis	-9.58447
▁consider	-9.58564
▁Z	-9.5865
▁*	-9.5928
▁sounds	-9.59353
▁suppose	-9.5942
that	-9.59427
▁grow	-9.5954
▁suit	-9.59642
▁th	-9.59647
▁company	-9.59718
▁computer	-9.59718
▁favorite	-9.59719
involving	-9.5972
▁baby	-9.59726
▁spot	-9.59734
▁popular	-9.59753
▁leads	-9.59755
▁tells	-9.59776
▁fear	-9.5978
▁Bad	-9.60133
▁sat	-9.60159
▁leaves	-9.60283
▁per	-9.60366
▁books	-9.60388
▁viewing	-9.6041
▁include	-9.60508
bu	-9.60584
▁waiting	-9.60624
▁mentioned	-9.60881
ler	-9.60887
▁Tom	-9.60894
▁laughs	-9.60998
J	-9.61129
▁meant	-9.61145
00	-9.61395
rate	-9.61518
with	-9.61758
On	-9.61786
▁Ca	-9.61985
▁bough	-9.61993
▁deserve	-9.6201
bo	-9.62062
▁dress	-9.62266
▁bizarre	-9.6235
▁convince	-9.6235
▁ground	-9.6235
▁easy	-9.6235
▁Christmas	-9.6235
▁revenge	-9.62351
▁choice	-9.62351
▁vote	-9.62354
▁caught	-9.62355
▁standard	-9.62358
▁paid	-9.62359
▁unbelievable	-9.62389
ue	-9.62525
▁successful	-9.62532
▁god	-9.62678
▁touch	-9.62703
▁generally	-9.62718
▁cry	-9.62726
ina	-9.62733
▁created	-9.62741
nother	-9.63013
ain	-9.63234
j	-9.63432
▁ideas	-9.63489
▁ends	-9.63678
▁win	-9.63763
ight	-9.63871
▁fighting	-9.63888
▁NO	-9.63954
da	-9.64186
▁steal	-9.64389
▁sleep	-9.64396
")	-9.64424
lan	-9.64518
Oh	-9.64599
▁present	-9.64636
▁deep	-9.64663
▁working	-9.6467
cy	-9.64673
▁cartoon	-9.65007
mon	-9.65047
▁Earth	-9.65053
▁desperate	-9.65053
▁plenty	-9.65053
▁content	-9.65053
▁sign	-9.65053
▁business	-9.65054
▁Nothing	-9.65054
▁rare	-9.65059
▁doctor	-9.65078
▁Jones	-9.65086
▁OF	-9.65088
▁herself	-9.65089
▁drug	-9.65101
▁brilliant	-9.6511
▁romantic	-9.65113
▁within	-9.65127
▁somewhere	-9.65144
▁moving	-9.65188
▁rich	-9.65228
lu	-9.65267
▁Un	-9.65372
▁en	-9.654
▁watchable	-9.65493
▁rate	-9.65616
she	-9.65755
▁visual	-9.65767
▁cute	-9.65773
▁focus	-9.65932
▁walking	-9.65978
▁h	-9.66
▁tough	-9.66218
▁assume	-9.66272
▁pop	-9.663
▁Ho	-9.66604
▁cat	-9.66616
act	-9.6667
ach	-9.66914
▁ba	-9.66939
king	-9.67074
▁plane	-9.67361
▁honest	-9.67442
▁general	-9.67443
▁particular	-9.67445
▁list	-9.67584
One	-9.67631
▁success	-9.67639
aw	-9.67639
▁inter	-9.67701
▁mark	-9.6782
▁college	-9.6783
▁design	-9.6783
▁random	-9.67833
▁unrealistic	-9.67835
▁70	-9.67837
▁sight	-9.67847
▁wrote	-9.67908
▁villain	-9.67909
▁atmosphere	-9.67924
▁return	-9.68132
▁producer	-9.68149
▁Mi	-9.68207
▁trip	-9.68245
▁hop	-9.68263
▁changed	-9.684
lin	-9.68456
▁values	-9.68476
▁ma	-9.6869
▁ask	-9.6875
ER	-9.69127
▁Co	-9.69235
▁door	-9.69288
nny	-9.69766
rs	-9.69785
ave	-9.69854
ure	-9.69974
▁knows	-9.70232
▁note	-9.70412
▁cult	-9.70678
+	-9.70687
▁disaster	-9.70687
▁third	-9.70688
▁Lewis	-9.70688
▁impossible	-9.70688
▁freak	-9.70688
▁mystery	-9.70689
▁common	-9.7069
▁narrative	-9.7069
▁cinematic	-9.70711
▁believable	-9.70725
▁tale	-9.7074
▁mad	-9.7074
▁realistic	-9.70763
▁battle	-9.70787
▁studio	-9.70853
▁remain	-9.7088
▁imp	-9.70916
▁creature	-9.70918
ut	-9.70998
▁musical	-9.71008
▁carry	-9.71075
▁filled	-9.71102
ound	-9.71148
▁vari	-9.71302
▁added	-9.71559
▁Car	-9.71874
ash	-9.71959
▁changes	-9.72092
▁laughed	-9.72474
ney	-9.72799
▁clichés	-9.72922
con	-9.72927
▁Sam	-9.72943
▁o	-9.72962
nna	-9.7302
Why	-9.7303
▁Hell	-9.73176
▁normal	-9.73371
day	-9.73435
▁personal	-9.73441
▁porn	-9.73566
med	-9.73573
gi	-9.73608
▁bottom	-9.73629
▁street	-9.73629
▁desert	-9.73629
▁amusing	-9.7363
▁difference	-9.7363
▁impressive	-9.73633
▁romance	-9.73635
▁match	-9.73636
▁amateurish	-9.73644
▁negative	-9.7365
▁contrived	-9.73651
▁photography	-9.73662
▁attractive	-9.73664
▁Film	-9.73681
▁abuse	-9.73689
▁manner	-9.73699
▁million	-9.73899
▁Ar	-9.74087
▁st	-9.74094
ped	-9.74467
▁moves	-9.74654
▁following	-9.74716
▁50	-9.74881
art	-9.7506
▁acted	-9.75353
▁Ba	-9.75577
what	-9.75866
▁students	-9.76009
▁bomb	-9.76025
some	-9.76039
oth	-9.76138
▁opera	-9.76202
▁exception	-9.76225
sitting	-9.76308
▁bed	-9.76453
▁attack	-9.76504
▁taste	-9.76636
▁government	-9.76659
▁search	-9.76659
▁protagonist	-9.76659
▁conclusion	-9.7666
▁clever	-9.76661
▁horse	-9.76725
▁earth	-9.7673
▁rock	-9.7678
▁Halloween	-9.76781
▁familiar	-9.76781
▁send	-9.76888
ities	-9.77001
▁grade	-9.77152
▁oh	-9.77176
▁missed	-9.77189
men	-9.77192
cu	-9.77276
▁younger	-9.77371
▁seconds	-9.77473
ee	-9.77536
9	-9.78006
▁War	-9.78078
▁Lo	-9.78192
▁Ra	-9.78325
▁King	-9.78371
ize	-9.78406
mi	-9.78439
▁rip	-9.78638
▁miss	-9.7864
▁shock	-9.78778
ING	-9.78818
ile	-9.78912
good	-9.79232
ga	-9.79254
ber	-9.79394
▁ha	-9.7944
▁rubbish	-9.79784
▁channel	-9.79784
▁regular	-9.79784
▁attitude	-9.79784
▁tired	-9.79788
▁fantasy	-9.79813
▁Tarantino	-9.79814
▁brief	-9.79833
▁fish	-9.79836
▁mere	-9.7986
▁sav	-9.79889
▁Jane	-9.79891
▁teacher	-9.79921
▁famous	-9.79948
▁Please	-9.79959
ang	-9.79992
▁mouth	-9.80006
▁below	-9.80086
▁question	-9.80225
▁dream	-9.80323
lle	-9.80347
▁folks	-9.80358
AR	-9.80615
▁control	-9.80783
ph	-9.80798
▁worked	-9.80903
▁died	-9.80998
▁lover	-9.81285
▁casting	-9.81597
▁commercials	-9.81602
▁featur	-9.81658
▁beat	-9.81743
ake	-9.81839
▁la	-9.81886
▁dis	-9.81925
▁Rock	-9.82238
▁insult	-9.82351
▁Tim	-9.82418
ak	-9.82475
ba	-9.82493
how	-9.82542
▁political	-9.82608
▁amazing	-9.82617
▁hilarious	-9.82633
0	-9.82663
▁drugs	-9.82952
▁chick	-9.82968
▁ran	-9.82998
▁Christian	-9.82999
▁Norris	-9.8301
▁mediocre	-9.8301
▁opportunity	-9.8301
▁technical	-9.8301
▁pretend	-9.83011
▁information	-9.83015
▁race	-9.83016
▁extra	-9.83016
▁western	-9.83027
▁thin	-9.83029
▁intended	-9.83064
▁display	-9.83074
▁confused	-9.83114
▁Jr	-9.83124
▁bits	-9.83193
▁fell	-9.83194
▁City	-9.83201
ier	-9.83527
▁Mar	-9.8385
ture	-9.83948
▁Too	-9.84038
▁skills	-9.84609
▁aspect	-9.84615
▁happening	-9.84688
rish	-9.84976
ties	-9.85029
▁lacks	-9.85214
▁Jer	-9.85655
▁appeal	-9.85678
ible	-9.85871
par	-9.85875
▁spirit	-9.85942
▁Watch	-9.85955
For	-9.85978
▁Ro	-9.86025
▁min	-9.86101
cient	-9.86162
▁lose	-9.86213
▁10.	-9.86257
▁allow	-9.86305
▁amateur	-9.86326
▁Smith	-9.86343
▁awkward	-9.86343
▁turkey	-9.86343
▁ultimate	-9.86343
▁drunk	-9.86343
▁innocent	-9.86343
▁beauty	-9.86343
▁giant	-9.86344
▁imagination	-9.86344
▁violent	-9.86344
▁moral	-9.86345
▁answer	-9.86346
▁prefer	-9.86347
▁available	-9.86347
▁dramatic	-9.86356
▁travel	-9.86356
▁appearance	-9.86357
▁expectations	-9.86365
▁CGI	-9.86382
▁frame	-9.86418
▁era	-9.86448
▁Yeah	-9.86457
▁print	-9.86465
▁Good	-9.86466
▁loud	-9.86477
mer	-9.86487
▁band	-9.86487
▁Martin	-9.86529
▁Dead	-9.86602
▁singing	-9.86631
▁Da	-9.86644
▁Overall	-9.86812
▁sal	-9.86989
▁wall	-9.87054
▁student	-9.87116
▁sc	-9.87266
▁paint	-9.8741
ru	-9.87431
ron	-9.87575
▁Ta	-9.87664
▁sea	-9.87698
▁US	-9.87759
ring	-9.88264
▁fat	-9.88267
fully	-9.88405
▁renting	-9.88617
▁blow	-9.88768
gu	-9.88837
ab	-9.88904
▁dies	-9.8891
ise	-9.89035
▁charm	-9.89247
▁record	-9.89295
ris	-9.89476
▁bore	-9.8956
che	-9.89564
ged	-9.89581
▁affair	-9.89791
▁irritating	-9.89791
▁psycho	-9.89791
▁Hitchcock	-9.89791
▁glad	-9.89791
▁masterpiece	-9.89792
▁chemistry	-9.89792
▁explanation	-9.89792
▁insane	-9.89792
▁instance	-9.89792
▁further	-9.89794
▁happy	-9.89794
▁wooden	-9.89802
▁bank	-9.89803
▁bright	-9.89813
▁adaptation	-9.89815
▁soft	-9.89832
▁damn	-9.89837
▁skip	-9.89839
▁Still	-9.89849
▁stock	-9.89851
▁blame	-9.8986
▁18	-9.89881
▁nobody	-9.89897
▁introduced	-9.89907
▁tape	-9.89948
▁episodes	-9.89999
▁sucked	-9.90039
▁9	-9.90166
▁land	-9.9017
itch	-9.90176
▁vi	-9.90221
ub	-9.90267
▁cliché	-9.90326
▁hire	-9.90344
▁ride	-9.90459
▁thank	-9.90509
▁week	-9.9059
▁appeared	-9.9074
▁boys	-9.90779
▁Was	-9.90954
our	-9.91003
▁Ben	-9.91076
▁Jo	-9.91213
▁issues	-9.9141
▁cr	-9.91595
ran	-9.91774
▁Del	-9.91843
▁Can	-9.92036
▁helped	-9.92351
▁pa	-9.9237
▁begins	-9.92483
You	-9.92774
▁portray	-9.92825
▁mine	-9.92956
▁quick	-9.92978
▁recent	-9.93008
▁mysterious	-9.93011
lly	-9.93241
▁telling	-9.93351
▁Hard	-9.93354
▁key	-9.93361
▁Vampire	-9.93363
▁World	-9.93363
▁fault	-9.93363
▁Disney	-9.93363
▁process	-9.93363
▁hurt	-9.93364
▁approach	-9.93364
▁nonsense	-9.93365
▁robot	-9.93365
▁boyfriend	-9.93368
▁enter	-9.93389
▁Mexican	-9.93397
▁claim	-9.93443
▁Chuck	-9.93465
▁starring	-9.93486
▁Po	-9.93492
▁Very	-9.93509
▁remotely	-9.93526
▁Paul	-9.93563
▁model	-9.9367
▁Day	-9.9368
▁soap	-9.93745
▁Where	-9.93758
▁arm	-9.93923
???	-9.94163
▁former	-9.94229
▁location	-9.94311
▁victim	-9.94351
▁acts	-9.94374
▁situations	-9.94416
▁sexy	-9.94452
??	-9.94478
Co	-9.94523
▁pan	-9.94815
▁references	-9.94837
▁raise	-9.95472
▁cross	-9.95481
▁fla	-9.95547
▁Here	-9.95631
end	-9.95679
▁le	-9.95696
▁Ka	-9.95837
▁Ru	-9.95838
om	-9.95841
▁ro	-9.95865
▁wondering	-9.96052
▁nu	-9.9643
▁40	-9.96664
▁apparent	-9.96682
▁involve	-9.96746
▁serve	-9.96756
light	-9.96779
qui	-9.9679
▁Steven	-9.96817
▁rape	-9.9689
pa	-9.96966
▁secret	-9.97051
▁criminal	-9.97066
▁thousand	-9.97066
▁unconvincing	-9.97066
▁unnecessary	-9.97066
▁blue	-9.97067
▁language	-9.97067
▁tedious	-9.97067
▁detective	-9.97068
▁legend	-9.97069
▁represent	-9.97074
▁nature	-9.97076
▁clean	-9.97076
▁stuck	-9.97081
▁theatre	-9.97088
▁crazy	-9.97102
▁immediately	-9.97118
▁trailer	-9.97134
▁Because	-9.97149
▁disturbing	-9.97154
▁Horror	-9.9717
▁addition	-9.97174
▁Despi	-9.97182
▁smart	-9.97193
use	-9.97257
▁Sure	-9.97258
▁lesson	-9.97304
▁Ann	-9.97314
▁ruined	-9.97388
▁constantly	-9.97398
▁pile	-9.97416
▁Love	-9.97423
▁recently	-9.97472
▁developed	-9.97523
▁Mc	-9.97529
▁force	-9.97543
!).	-9.97544
▁mile	-9.97565
▁lived	-9.97791
▁sadly	-9.98026
ki	-9.98187
▁hat	-9.98307
▁stereotypes	-9.98401
▁slowly	-9.98526
▁dude	-9.98764
▁images	-9.98811
▁8	-9.98824
ill	-9.98836
▁par	-9.9918
▁club	-9.99406
We	-9.99447
▁soldiers	-9.99452
?!	-9.99518
▁pain	-9.99903
▁100	-9.99928
▁j	-9.9994
▁Christ	-9.99997
vo	-10.0015
ping	-10.0016
just	-10.0028
Some	-10.0033
▁repeat	-10.0043
op	-10.0044
▁Br	-10.0057
▁appreciate	-10.0059
▁se	-10.006
▁torture	-10.006
▁describe	-10.0061
▁load	-10.0065
bad	-10.0068
Not	-10.0081
▁Steve	-10.0086
▁seeming	-10.0087
▁creative	-10.0091
▁horribly	-10.0091
▁spoof	-10.0091
▁eventually	-10.0091
▁center	-10.0091
▁Japanese	-10.0091
▁tension	-10.0092
▁visit	-10.0092
▁interview	-10.0092
▁failure	-10.0092
▁science	-10.0093
▁began	-10.0094
▁grace	-10.0094
▁energy	-10.0095
▁deserves	-10.0098
▁boat	-10.0101
▁plus	-10.0102
▁Okay	-10.0102
▁phone	-10.0112
▁Avoid	-10.0113
▁19	-10.0117
▁rental	-10.0117
▁mom	-10.0127
▁Du	-10.0127
▁Mary	-10.0136
▁More	-10.0139
▁months	-10.0141
▁justice	-10.0141
ail	-10.0145
▁honestly	-10.0146
▁snakes	-10.0195
oh	-10.0197
▁emotion	-10.0202
▁murdered	-10.0204
▁accents	-10.0206
▁detail	-10.0217
▁ball	-10.0218
▁longer	-10.0219
▁filmmaker	-10.022
ack	-10.0223
▁Bar	-10.0251
▁lighting	-10.0254
▁Gr	-10.0265
▁:	-10.0266
▁ghosts	-10.0273
ette	-10.0279
▁plan	-10.0281
▁worthy	-10.0287
▁follows	-10.0294
ah	-10.0318
fest	-10.0332
long	-10.034
ON	-10.0364
my	-10.0366
ugh	-10.0378
▁flicks	-10.0385
▁drink	-10.0425
▁fill	-10.0433
▁Che	-10.0434
▁listen	-10.0436
back	-10.0437
▁loose	-10.0452
▁hang	-10.0456
▁uses	-10.0459
you	-10.0465
~	-10.0491
▁exciting	-10.0491
▁genuine	-10.0491
▁industry	-10.0491
▁pretentious	-10.0491
▁advice	-10.0491
▁clothes	-10.0491
▁sweet	-10.0491
▁suspect	-10.0491
▁York	-10.0491
▁Great	-10.0492
▁round	-10.0492
▁system	-10.0493
▁1980	-10.0493
▁cash	-10.0493
▁stopped	-10.0493
▁Adam	-10.0493
▁idiotic	-10.0493
▁unfunny	-10.0494
▁sn	-10.0494
▁commentary	-10.0495
▁propaganda	-10.0495
▁literally	-10.0495
▁social	-10.0495
TV	-10.0496
▁relative	-10.0496
▁dancing	-10.0498
▁minor	-10.0498
▁culture	-10.0499
▁anybody	-10.05
▁Park	-10.0504
▁Alien	-10.051
▁mid	-10.0511
▁Other	-10.0512
▁suddenly	-10.0513
▁Force	-10.0515
▁Does	-10.052
▁clichéd	-10.0526
▁meaning	-10.0534
▁wind	-10.0537
▁portrayed	-10.0545
ank	-10.0546
▁!	-10.055
▁beach	-10.0558
é	-10.0561
▁Sea	-10.0561
No	-10.0562
▁finished	-10.057
▁tend	-10.0576
pro	-10.0587
▁apart	-10.0591
▁learned	-10.0609
▁lovely	-10.0619
▁agent	-10.0628
ger	-10.0632
▁fe	-10.0644
ntin	-10.0653
▁fully	-10.0666
An	-10.0688
▁teen	-10.0688
teen	-10.0692
ors	-10.0744
▁bi	-10.0759
▁Cr	-10.077
au	-10.0779
▁directors	-10.0807
ver	-10.0829
night	-10.083
▁Th	-10.0831
down	-10.0837
▁scream	-10.0843
OR	-10.0844
ze	-10.085
▁build	-10.0855
▁develop	-10.0859
▁logic	-10.0865
▁Frank	-10.0868
Fi	-10.0869
▁effective	-10.087
guy	-10.0879
▁emotional	-10.0881
▁mood	-10.0882
low	-10.0883
ncy	-10.0885
▁ways	-10.0885
ging	-10.0892
ong	-10.0896
cent	-10.0896
right	-10.09
▁crash	-10.0901
tch	-10.0904
▁product	-10.0904
▁exploit	-10.0906
▁depressing	-10.0908
▁encounter	-10.0908
▁fashion	-10.0908
▁humour	-10.0908
▁twenty	-10.0908
▁floor	-10.0908
▁green	-10.0908
▁presence	-10.0908
▁smile	-10.0908
▁forgettable	-10.0908
▁belief	-10.0908
▁alright	-10.0908
▁study	-10.0908
▁leaving	-10.0908
▁uninspired	-10.0908
▁decade	-10.0908
▁Alex	-10.0909
▁boredom	-10.0909
▁cruel	-10.0909
▁season	-10.091
▁collection	-10.0911
▁bland	-10.0911
▁Texas	-10.0912
▁stereotypical	-10.0912
▁Wayne	-10.0913
▁Jennifer	-10.0914
▁genius	-10.0914
▁uninteresting	-10.0915
▁AND	-10.0917
▁trust	-10.0917
car	-10.0918
▁Charles	-10.0919
▁adventure	-10.092
▁Everything	-10.092
▁drawn	-10.0922
▁somebody	-10.0924
▁solid	-10.0924
▁table	-10.0929
▁road	-10.0933
▁See	-10.0933
▁greatest	-10.0948
▁scared	-10.0954
▁noticed	-10.0962
▁board	-10.0965
▁Boy	-10.0971
▁ham	-10.098
He	-10.0991
ball	-10.101
▁forever	-10.1012
▁soul	-10.1016
▁bothered	-10.1033
ED	-10.1043
Be	-10.1046
lf	-10.1049
ff	-10.1054
▁scientist	-10.1066
▁contain	-10.1067
▁soldier	-10.1069
gar	-10.1081
▁aim	-10.1082
▁Pa	-10.1098
▁ill	-10.1111
till	-10.1113
they	-10.1128
▁aside	-10.113
▁places	-10.1139
▁Di	-10.1143
**	-10.1164
▁smoke	-10.1173
▁believed	-10.12
LE	-10.1243
***	-10.1263
wi	-10.1271
Overall	-10.1282
When	-10.1283
year	-10.1283
▁reveal	-10.1295
▁Al	-10.1296
▁constant	-10.1304
▁produce	-10.1305
▁cringe	-10.1311
▁survive	-10.1311
▁luck	-10.1317
▁fo	-10.1327
▁regard	-10.134
▁junk	-10.134
	-10.1343
▁Holmes	-10.1343
▁Kevin	-10.1343
▁Zombie	-10.1343
▁equal	-10.1343
▁experiment	-10.1343
▁scenario	-10.1343
▁zero	-10.1343
▁nasty	-10.1343
▁shallow	-10.1343
▁1950	-10.1343
▁parody	-10.1343
▁Linda	-10.1343
▁cost	-10.1343
▁section	-10.1344
▁root	-10.1344
▁latter	-10.1344
▁3/10	-10.1344
▁six	-10.1344
▁paper	-10.1345
▁sent	-10.1347
▁racism	-10.1347
▁animated	-10.1347
▁15	-10.1348
▁city	-10.1348
▁Seagal	-10.135
▁sell	-10.135
▁crack	-10.135
run	-10.1351
▁yeah	-10.1355
▁lo	-10.1355
▁atrocious	-10.1358
▁vs	-10.1359
▁captured	-10.1366
▁cops	-10.1373
▁scenery	-10.1378
▁wise	-10.1393
dimensional	-10.1401
ations	-10.1403
▁calls	-10.1414
▁twists	-10.1414
▁painfully	-10.1416
▁realized	-10.1433
▁explained	-10.1442
ied	-10.1442
▁runs	-10.1455
▁mu	-10.1482
▁speaking	-10.1501
▁older	-10.1502
▁m	-10.1541
▁award	-10.1542
▁DO	-10.1558
▁****	-10.1559
▁Ford	-10.1562
▁teenagers	-10.1562
▁costs	-10.1618
▁Vi	-10.1631
▁lacking	-10.1634
▁sole	-10.164
▁details	-10.1651
▁Mel	-10.1656
vis	-10.1691
zz	-10.1704
den	-10.1709
uc	-10.1725
board	-10.1728
X	-10.1732
First	-10.1737
when	-10.1738
Well	-10.1744
▁skin	-10.1751
most	-10.1755
▁sw	-10.1757
▁mental	-10.1758
▁sun	-10.1759
▁promise	-10.1765
▁MST	-10.177
▁date	-10.1771
▁Ri	-10.1786
▁stretch	-10.1789
ett	-10.1792
–	-10.1797
▁Gordon	-10.1797
▁THAT	-10.1797
▁continuity	-10.1797
▁evidence	-10.1797
▁jungle	-10.1797
▁twice	-10.1797
▁vehicle	-10.1797
▁lousy	-10.1797
▁dozen	-10.1797
▁angry	-10.1797
▁professional	-10.1797
▁semi	-10.1798
▁Edward	-10.1798
▁dangerous	-10.1799
▁Julie	-10.1799
▁master	-10.1803
▁Bob	-10.1803
▁pri	-10.1804
▁intelligent	-10.1804
▁promising	-10.1804
▁passion	-10.1804
▁High	-10.1808
▁embarrassing	-10.1808
▁Hope	-10.181
▁Predator	-10.181
▁Chan	-10.1814
▁independent	-10.1815
▁Two	-10.1822
▁motion	-10.1824
rew	-10.1828
han	-10.1831
▁field	-10.1839
▁Ray	-10.184
▁Anyway	-10.1843
▁law	-10.1844
▁machine	-10.1848
▁Lee	-10.1868
▁presented	-10.1878
▁favor	-10.188
▁woods	-10.1882
▁poster	-10.1892
▁shocking	-10.1894
▁exist	-10.1917
▁sequels	-10.192
▁Bu	-10.192
▁dollars	-10.1948
rk	-10.197
▁names	-10.1985
▁commercial	-10.2
▁element	-10.2002
▁William	-10.201
ative	-10.2014
dge	-10.2017
▁ski	-10.2022
▁Pro	-10.2027
ose	-10.2037
▁disc	-10.2048
▁Williams	-10.2062
ire	-10.2073
ide	-10.2098
ward	-10.2108
▁St	-10.2122
▁victims	-10.2147
▁forest	-10.2147
▁Dan	-10.2148
▁fare	-10.2158
▁va	-10.2165
▁quote	-10.2169
ass	-10.217
▁na	-10.2182
ita	-10.2195
film	-10.2214
However	-10.2214
▁ho	-10.2215
▁treat	-10.2224
▁destroy	-10.2229
lic	-10.2234
▁monsters	-10.2237
▁remains	-10.2241
▁understanding	-10.2244
▁pace	-10.2247
▁heads	-10.2263
▁clue	-10.2271
▁Cameron	-10.2273
▁Fonda	-10.2273
▁cliche	-10.2273
▁complain	-10.2273
▁description	-10.2273
▁horrendous	-10.2273
▁knock	-10.2273
▁lesbian	-10.2273
▁pitiful	-10.2273
▁psychological	-10.2273
▁responsible	-10.2273
▁retarded	-10.2273
▁substance	-10.2273
▁succeed	-10.2273
▁suicide	-10.2273
▁Vietnam	-10.2273
▁lazy	-10.2273
▁length	-10.2273
▁unique	-10.2273
▁Next	-10.2273
▁Ryan	-10.2274
▁source	-10.2274
Though	-10.2274
▁Mencia	-10.2274
▁Sci	-10.2274
▁serial	-10.2274
▁dying	-10.2274
▁Mike	-10.2275
▁share	-10.2275
▁edge	-10.2276
▁connection	-10.2276
▁flow	-10.2276
▁Yet	-10.2276
▁highlight	-10.2277
▁double	-10.2278
▁ninja	-10.2278
ittle	-10.2279
▁married	-10.228
▁fiction	-10.2281
▁1970	-10.2281
▁memorable	-10.2281
▁Show	-10.2282
▁stumble	-10.2283
▁porno	-10.2284
▁Heart	-10.2285
▁African	-10.2287
▁truck	-10.2289
▁Hav	-10.2294
▁offer	-10.2294
▁formula	-10.2295
▁Dave	-10.2295
▁haunted	-10.2298
▁Fu	-10.2299
▁seek	-10.23
▁born	-10.2305
▁Indian	-10.2306
▁sum	-10.2308
▁talents	-10.2313
▁forgotten	-10.2313
▁resemble	-10.2316
▁ability	-10.2316
▁sports	-10.2321
▁Miss	-10.2328
▁allowed	-10.2342
▁screaming	-10.2349
py	-10.2356
▁pal	-10.2373
▁reach	-10.2383
though	-10.2386
▁lower	-10.2397
▁rated	-10.2415
hero	-10.2431
▁tone	-10.2456
▁saved	-10.248
▁ta	-10.2485
LY	-10.2487
▁account	-10.249
▁terms	-10.2501
ale	-10.2503
▁exp	-10.2514
ory	-10.2524
▁fu	-10.2529
▁60	-10.2536
▁Fin	-10.256
▁Ni	-10.2563
let	-10.2572
▁bear	-10.2574
▁site	-10.2575
▁contains	-10.2585
▁fr	-10.2589
cal	-10.2589
▁leader	-10.2591
.......	-10.2618
▁adds	-10.2636
▁mainly	-10.2638
ker	-10.2659
ka	-10.266
istic	-10.2664
▁Any	-10.2675
row	-10.2696
house	-10.2715
That	-10.2715
▁news	-10.2716
town	-10.2716
director	-10.2718
▁pe	-10.2721
Now	-10.2722
▁disappear	-10.2724
pre	-10.2757
▁pen	-10.2761
▁asks	-10.2761
▁attract	-10.2768
▁object	-10.2772
▁consist	-10.2773
▁Austen	-10.2773
▁accurate	-10.2773
▁motivation	-10.2773
▁society	-10.2773
▁theatrical	-10.2773
▁compelling	-10.2774
▁hospital	-10.2774
▁entry	-10.2774
▁influence	-10.2774
▁silent	-10.2774
▁amaze	-10.2774
▁comparison	-10.2774
▁century	-10.2774
▁fantastic	-10.2774
▁miscast	-10.2774
▁dubbed	-10.2774
▁intention	-10.2774
▁grand	-10.2774
▁Tommy	-10.2774
▁complex	-10.2774
▁nerd	-10.2774
▁window	-10.2775
▁impact	-10.2775
▁unoriginal	-10.2775
▁native	-10.2775
▁prime	-10.2775
▁unknown	-10.2776
▁pair	-10.2777
▁rise	-10.2777
▁physical	-10.2778
▁likable	-10.2778
▁underground	-10.2778
▁gross	-10.2779
▁essentially	-10.2779
▁Shakespeare	-10.278
▁mission	-10.278
▁cold	-10.2781
▁market	-10.2781
▁Thomas	-10.2781
▁climax	-10.2781
▁crowd	-10.2782
▁Row	-10.2783
▁anywhere	-10.2783
▁Story	-10.2783
▁13	-10.2783
▁stinker	-10.2787
▁capable	-10.2787
▁Moon	-10.2788
▁useless	-10.2791
▁Wow	-10.2792
ky	-10.2792
▁worthless	-10.2793
▁gold	-10.2797
▁limited	-10.2801
▁Look	-10.2817
▁carrie	-10.2823
▁treated	-10.2824
▁warning	-10.2833
▁Gu	-10.2837
▁X	-10.2841
gen	-10.2846
▁makeup	-10.2852
▁knowing	-10.2861
▁Watching	-10.2874
EN	-10.2882
actor	-10.2885
▁Bas	-10.2896
▁weapons	-10.2896
▁walked	-10.2901
▁11	-10.2901
dy	-10.2902
▁fail	-10.2914
▁pictures	-10.2925
▁planet	-10.2931
▁Gi	-10.2937
ior	-10.2938
Do	-10.2938
▁mini	-10.2941
aught	-10.2979
▁fights	-10.298
▁gra	-10.2981
there	-10.2989
make	-10.2993
▁recommended	-10.2999
ial	-10.3003
▁fl	-10.3005
▁lacked	-10.3017
uck	-10.3017
▁Na	-10.3029
▁member	-10.3036
▁hole	-10.3046
can	-10.3052
log	-10.3059
▁Pre	-10.3069
▁reviewer	-10.3074
▁def	-10.3077
▁struggle	-10.3078
fic	-10.3101
▁terror	-10.3119
▁locations	-10.3161
▁rid	-10.3176
▁ST	-10.3177
They	-10.3199
▁relationships	-10.3205
▁aspects	-10.3206
more	-10.3218
▁questions	-10.322
▁prison	-10.3221
▁spoil	-10.3233
plot	-10.3239
screen	-10.3239
After	-10.324
Unfortunately	-10.324
action	-10.3244
although	-10.3247
style	-10.3247
nnie	-10.325
NE	-10.3251
used	-10.3257
▁accept	-10.3259
▁drop	-10.3259
▁sheer	-10.3262
▁creatures	-10.3265
▁Big	-10.3273
▁Ch	-10.3275
sive	-10.3278
Man	-10.3279
▁Space	-10.328
port	-10.3281
▁draw	-10.3281
▁chose	-10.3284
!!!!	-10.3289
▁Harris	-10.3295
▁absurd	-10.3297
▁hide	-10.3299
▁Chicago	-10.33
▁Lugosi	-10.33
▁advance	-10.33
▁asleep	-10.33
▁decision	-10.33
▁harsh	-10.33
▁horrific	-10.33
▁intelligence	-10.33
▁intriguing	-10.33
▁military	-10.33
▁miserably	-10.33
▁necessary	-10.33
▁protect	-10.33
▁France	-10.33
▁false	-10.33
▁swear	-10.33
spiring	-10.33
▁affect	-10.33
▁join	-10.33
▁category	-10.33
▁bathroom	-10.33
▁cannibal	-10.33
▁kiss	-10.33
▁owner	-10.33
▁Otherwise	-10.33
▁preview	-10.3301
▁hint	-10.3301
▁superior	-10.3301
▁repetitive	-10.3301
▁feet	-10.3302
▁worthwhile	-10.3302
▁treatment	-10.3302
▁exploitation	-10.3302
▁Bruc	-10.3302
▁gangster	-10.3303
▁priest	-10.3303
▁seven	-10.3304
▁jail	-10.3304
▁Larry	-10.3305
▁Lane	-10.3306
▁Clark	-10.3307
▁Joan	-10.3307
▁station	-10.3307
▁current	-10.3308
▁Johnson	-10.3309
uch	-10.331
▁standards	-10.331
▁dry	-10.3311
▁Back	-10.3311
▁Plus	-10.3312
▁edited	-10.3312
▁Fred	-10.3314
▁Catherine	-10.3315
▁Dog	-10.3316
▁Seriously	-10.3318
▁sink	-10.3319
▁Last	-10.332
▁mildly	-10.332
▁Give	-10.332
▁upset	-10.3321
▁Ball	-10.3325
▁rank	-10.3326
▁/>1	-10.3327
▁related	-10.3327
▁flying	-10.333
▁Mark	-10.3331
▁Li	-10.3332
▁dancer	-10.3335
▁actresses	-10.3341
very	-10.3342
don	-10.3342
▁campy	-10.3356
▁hack	-10.3356
body	-10.3358
aking	-10.3358
umber	-10.3359
gg	-10.3361
▁finding	-10.3367
▁becom	-10.3368
▁Best	-10.3368
▁Top	-10.3368
▁compar	-10.3382
▁gags	-10.34
▁higher	-10.34
▁opens	-10.3408
▁perfectly	-10.3416
cut	-10.3423
▁sleeping	-10.343
▁efforts	-10.3431
fe	-10.3443
▁Hu	-10.3454
▁spit	-10.3457
ving	-10.3485
▁costumes	-10.3506
ery	-10.351
bil	-10.3521
head	-10.3521
▁ruin	-10.3529
▁continue	-10.3572
▁thinks	-10.3574
▁rule	-10.3575
▁teenager	-10.3586
▁Ne	-10.3601
▁skill	-10.3612
▁program	-10.3616
iness	-10.3642
RE	-10.3648
Ha	-10.3668
hose	-10.3677
▁tie	-10.371
▁magic	-10.3712
▁spin	-10.3721
set	-10.3736
▁area	-10.375
ship	-10.375
wise	-10.3791
▁roll	-10.3793
Even	-10.3795
called	-10.3796
American	-10.3798
Let	-10.3806
▁Je	-10.3808
especially	-10.3816
▁capture	-10.3825
▁correct	-10.383
pping	-10.3834
▁warn	-10.3836
▁religio	-10.3837
▁regret	-10.3844
efore	-10.385
▁Chinese	-10.3855
▁appalling	-10.3855
▁horrid	-10.3855
▁knowledge	-10.3855
▁numerous	-10.3855
▁ordinary	-10.3855
▁practical	-10.3855
▁research	-10.3855
▁subtitle	-10.3855
▁ultra	-10.3855
▁Brown	-10.3855
▁House	-10.3855
▁WWII	-10.3855
▁worry	-10.3855
▁Blair	-10.3855
▁vague	-10.3855
▁minimal	-10.3855
▁pacing	-10.3855
▁marti	-10.3855
▁gratuitous	-10.3855
▁President	-10.3855
▁hidden	-10.3855
▁ugly	-10.3856
▁degree	-10.3856
▁Canadian	-10.3856
▁therefore	-10.3856
▁puppet	-10.3856
▁Devil	-10.3856
▁Luci	-10.3856
▁Patty	-10.3856
▁sentence	-10.3856
▁device	-10.3856
▁4/10	-10.3857
▁wide	-10.3857
▁wound	-10.3857
▁finger	-10.3857
▁interpretation	-10.3857
▁hook	-10.3858
▁apartment	-10.3858
▁handsome	-10.3859
▁besides	-10.3859
▁personality	-10.386
▁sitcom	-10.386
▁demon	-10.386
▁earn	-10.3862
▁Island	-10.3863
▁threaten	-10.3864
▁Que	-10.3864
▁Julia	-10.3864
▁Stupid	-10.3864
▁Which	-10.3864
▁lift	-10.3864
▁Young	-10.3865
▁portrayal	-10.3866
▁superb	-10.3866
▁Boll	-10.3868
▁blind	-10.3868
▁#	-10.3868
▁endless	-10.3868
▁Sadly	-10.3868
▁officer	-10.387
▁biker	-10.3871
▁host	-10.3875
▁Thank	-10.3875
▁Poor	-10.3879
▁ONE	-10.3879
▁charge	-10.388
▁Night	-10.3881
▁bigger	-10.3882
▁safe	-10.3882
▁Guy	-10.3883
▁Call	-10.3883
▁fascinating	-10.3884
▁appropriate	-10.3887
▁loser	-10.3888
▁Up	-10.3889
▁improve	-10.3892
▁warned	-10.3904
▁Will	-10.3912
▁Take	-10.3921
ug	-10.3922
▁inept	-10.3923
▁amazingly	-10.3924
▁driver	-10.3931
▁unusual	-10.3939
▁personally	-10.394
▁arrives	-10.3944
▁figured	-10.3954
ark	-10.3963
putting	-10.3966
▁delivered	-10.3981
▁aware	-10.4001
▁seat	-10.4001
kin	-10.4015
▁bag	-10.402
▁factor	-10.4037
▁card	-10.4044
Then	-10.4045
▁lad	-10.4046
▁Wi	-10.4051
▁path	-10.4055
▁pieces	-10.4072
▁included	-10.4086
▁Stan	-10.4102
▁hadn	-10.4102
ops	-10.4107
boy	-10.4117
jo	-10.4124
▁state	-10.4136
▁image	-10.4169
▁term	-10.4173
her	-10.4178
▁ghost	-10.4179
▁issue	-10.4186
▁bo	-10.419
▁chas	-10.4209
▁rat	-10.4216
▁themes	-10.4223
▁pi	-10.4224
▁Am	-10.4246
atch	-10.4249
▁po	-10.425
ater	-10.4255
▁Carl	-10.4271
tten	-10.4276
▁li	-10.428
▁offers	-10.4297
▁/	-10.4306
▁Ja	-10.4317
▁cars	-10.4319
Q	-10.433
▁Grant	-10.4338
specially	-10.4344
▁bat	-10.437
▁perform	-10.4376
view	-10.4379
list	-10.438
▁overly	-10.4382
▁SO	-10.4382
Where	-10.4383
Just	-10.4384
How	-10.4388
worthy	-10.4391
▁witness	-10.4407
▁cri	-10.4413
dom	-10.4422
▁burn	-10.4428
life	-10.443
▁Out	-10.4433
▁hype	-10.4436
▁express	-10.444
▁flash	-10.4441
pers	-10.4441
▁subtle	-10.4442
▁Cujo	-10.4444
▁MOVIE	-10.4444
▁Picture	-10.4444
▁afraid	-10.4444
▁behavior	-10.4444
▁credibility	-10.4444
▁heavily	-10.4444
▁monkey	-10.4444
▁obnoxious	-10.4444
▁service	-10.4444
▁stomach	-10.4444
▁sympathy	-10.4444
▁target	-10.4444
▁terribly	-10.4444
▁accomplish	-10.4444
▁opposite	-10.4444
▁pleasure	-10.4444
▁ludicrous	-10.4444
▁sharp	-10.4444
▁Redford	-10.4444
▁joy	-10.4444
▁recognize	-10.4444
▁oppos	-10.4444
▁cardboard	-10.4444
▁mask	-10.4444
▁nurse	-10.4444
▁Kelly	-10.4444
▁breath	-10.4444
▁switch	-10.4444
▁Nazi	-10.4444
▁court	-10.4444
▁scale	-10.4444
▁steam	-10.4444
▁satire	-10.4444
▁Mummy	-10.4445
▁relief	-10.4445
▁tune	-10.4445
▁nude	-10.4446
▁elsewhere	-10.4446
▁sake	-10.4447
▁position	-10.4449
▁offensive	-10.4449
▁Fox	-10.4449
▁pilot	-10.4449
▁routine	-10.4449
▁everybody	-10.4449
where	-10.445
▁base	-10.4451
▁People	-10.4453
▁Evil	-10.4453
▁corny	-10.4453
▁humanity	-10.4454
▁laughter	-10.4455
craft	-10.4455
▁shadow	-10.4457
▁goofy	-10.4458
▁EVER	-10.4458
▁cable	-10.4459
▁Charlie	-10.4459
▁Actually	-10.446
▁Director	-10.446
▁dad	-10.4466
▁Glen	-10.4466
▁originality	-10.4476
▁tree	-10.4476
▁disgusting	-10.4486
▁cameo	-10.4487
▁gory	-10.4491
▁bill	-10.4499
▁according	-10.4504
▁driv	-10.451
▁Pr	-10.4522
▁ob	-10.4522
▁ti	-10.4524
▁normally	-10.4524
▁screening	-10.4525
▁Mad	-10.4528
rapped	-10.4532
▁shocked	-10.4536
▁YOU	-10.4539
▁insulting	-10.4567
▁theaters	-10.4578
ood	-10.4592
real	-10.4611
▁Rob	-10.4616
Unless	-10.4616
▁adults	-10.4624
▁Matt	-10.4632
▁critic	-10.4637
▁Men	-10.4647
too	-10.4656
▁Iron	-10.4664
▁ripp	-10.4667
▁size	-10.4672
▁asking	-10.4685
▁falling	-10.4696
▁spoilers	-10.4698
▁reduc	-10.47
cutting	-10.4703
▁IS	-10.4703
▁critics	-10.4715
▁scares	-10.4718
▁Far	-10.4725
▁ring	-10.4738
▁push	-10.474
was	-10.4757
▁ja	-10.4767
▁scare	-10.4778
▁reviewers	-10.4779
ace	-10.4783
▁flashback	-10.4789
nit	-10.4789
▁vampire	-10.4799
liners	-10.4822
▁lit	-10.4841
cr	-10.4847
▁dare	-10.4848
▁murders	-10.4848
▁Mac	-10.4861
▁tra	-10.4863
awn	-10.4879
iff	-10.4899
▁arms	-10.4905
▁forces	-10.4909
▁Fe	-10.4935
hack	-10.4938
▁matters	-10.4941
▁led	-10.495
▁Roberts	-10.4965
du	-10.497
▁Are	-10.4998
_	-10.5006
Anyway	-10.5008
Whil	-10.501
▁millions	-10.5012
play	-10.502
▁fool	-10.5021
▁Ice	-10.5022
▁invent	-10.5031
bi	-10.5038
▁require	-10.5038
▁returns	-10.5047
eek	-10.5048
looking	-10.505
▁Russia	-10.505
▁Africa	-10.5051
made	-10.5059
SPOILER	-10.5063
▁witch	-10.5063
wai	-10.5064
VERY	-10.5066
▁excite	-10.5067
▁California	-10.5069
▁Fiction	-10.5069
▁cheese	-10.5069
▁colour	-10.5069
▁department	-10.5069
▁executed	-10.5069
▁festival	-10.5069
▁franchise	-10.5069
▁helicopter	-10.5069
▁racist	-10.5069
▁reputation	-10.5069
▁strength	-10.5069
▁tragedy	-10.5069
▁Channel	-10.5069
▁president	-10.5069
▁progress	-10.5069
▁Heaven	-10.5069
▁proud	-10.5069
▁brutal	-10.5069
▁sneak	-10.5069
▁jerk	-10.5069
▁Hayes	-10.5069
▁task	-10.5069
▁Patrick	-10.5069
▁REALLY	-10.5069
▁supernatural	-10.5069
▁vacation	-10.5069
▁chief	-10.5069
▁tribe	-10.5069
▁summer	-10.5069
▁Lord	-10.5069
▁kidding	-10.5069
▁fix	-10.507
▁Jason	-10.507
▁food	-10.507
▁Eddie	-10.5072
▁du	-10.5073
▁broken	-10.5073
▁Anthony	-10.5075
▁Arnold	-10.5075
▁Stephen	-10.5075
▁frankly	-10.5075
▁spare	-10.5075
▁danger	-10.5076
▁Full	-10.5076
▁Robin	-10.5076
opher	-10.5078
▁chuckle	-10.5078
▁South	-10.5078
▁Roger	-10.5079
▁Terrible	-10.5082
▁Acting	-10.5083
▁explor	-10.5084
hard	-10.5086
▁ch	-10.5087
▁Asian	-10.5091
lon	-10.5097
uff	-10.5098
retty	-10.5098
▁("	-10.5099
▁lip	-10.51
▁rough	-10.51
ov	-10.5105
▁repeated	-10.5107
▁Allen	-10.5108
▁surprisingly	-10.5109
▁vision	-10.5111
▁Sinc	-10.5111
▁cap	-10.5116
▁Get	-10.512
▁lock	-10.5128
gging	-10.5136
▁Germany	-10.5138
▁mate	-10.5142
ient	-10.5148
▁anger	-10.5157
▁Thing	-10.5166
▁cha	-10.5167
▁Ver	-10.5167
▁stalk	-10.517
▁drinking	-10.5174
sex	-10.5176
▁mistakes	-10.5177
▁bloody	-10.5177
mic	-10.5183
▁pet	-10.5185
▁charming	-10.5191
▁discovered	-10.5197
▁audiences	-10.5202
▁angles	-10.5206
▁Time	-10.5218
cle	-10.5225
▁Walt	-10.5225
▁Ju	-10.5232
rated	-10.5233
▁IN	-10.5239
iest	-10.5247
▁brothers	-10.5267
▁lies	-10.527
ison	-10.5272
▁occasional	-10.5284
▁Ti	-10.5287
▁animals	-10.5298
▁Mrs	-10.5313
ppy	-10.533
spect	-10.5331
room	-10.5331
▁holding	-10.5335
rash	-10.5337
▁Cor	-10.5353
▁van	-10.5358
▁suck	-10.5374
▁willing	-10.538
▁teach	-10.5391
▁Woods	-10.5392
gotten	-10.5396
▁l	-10.5402
▁dealing	-10.5402
AD	-10.5409
gent	-10.541
▁bus	-10.5419
▁Con	-10.5443
▁occur	-10.545
see	-10.5452
mate	-10.5453
▁artist	-10.5456
ending	-10.5457
▁choose	-10.5459
▁reference	-10.5462
izing	-10.5469
▁spoiler	-10.5486
put	-10.5493
▁su	-10.5505
▁hopes	-10.5527
ana	-10.5534
▁youth	-10.5537
▁el	-10.5543
▁faces	-10.5561
▁slo	-10.5575
▁weeks	-10.558
▁$	-10.5582
rd	-10.5585
▁25	-10.56
▁beg	-10.5634
pic	-10.564
▁provid	-10.5644
lid	-10.5651
bout	-10.5656
▁tit	-10.5667
field	-10.5674
Z	-10.5674
horror	-10.5675
John	-10.568
▁gri	-10.569
▁wild	-10.5695
▁radio	-10.5705
▁proper	-10.5706
▁exact	-10.5709
▁heavy	-10.5718
▁wit	-10.5729
▁transform	-10.573
▁commit	-10.5733
▁proceed	-10.5734
▁symbol	-10.5734
▁Graffiti	-10.5735
▁Himesh	-10.5735
▁Swedish	-10.5735
▁Travolta	-10.5735
▁advertising	-10.5735
▁curious	-10.5735
▁execution	-10.5735
▁explode	-10.5735
▁generic	-10.5735
▁marriage	-10.5735
▁neighbor	-10.5735
▁precious	-10.5735
▁principal	-10.5735
▁speech	-10.5735
▁summary	-10.5735
▁teeth	-10.5735
▁thoroughly	-10.5735
▁Hitler	-10.5735
▁dinner	-10.5735
▁blatant	-10.5735
▁creation	-10.5735
▁marry	-10.5735
▁bodies	-10.5735
▁tongue	-10.5735
▁Street	-10.5735
▁rescue	-10.5735
▁convey	-10.5735
▁queen	-10.5735
▁urge	-10.5735
▁Henry	-10.5735
▁introduction	-10.5735
▁Moore	-10.5735
stream	-10.5735
foreign	-10.5735
▁afterwards	-10.5736
▁Ireland	-10.5736
▁committed	-10.5736
▁comedies	-10.5736
▁advise	-10.5736
▁stiff	-10.5736
▁North	-10.5736
▁dropped	-10.5736
▁condition	-10.5736
▁combination	-10.5736
▁forgot	-10.5737
▁wannabe	-10.5737
▁alive	-10.5737
▁depiction	-10.5737
▁Darkness	-10.5738
▁statement	-10.5738
▁rain	-10.5738
ville	-10.5738
▁bound	-10.5738
▁author	-10.5739
▁epic	-10.5739
▁gem	-10.5739
▁Kane	-10.5739
▁meaningless	-10.5739
▁heroine	-10.574
▁pack	-10.574
▁lone	-10.5741
▁Much	-10.5742
▁bug	-10.5743
▁majority	-10.5744
▁Bela	-10.5744
▁Apparently	-10.5746
▁Life	-10.5746
▁USA	-10.5747
▁embarrassed	-10.5747
▁office	-10.5747
now	-10.5747
▁Terry	-10.5748
▁Monster	-10.575
▁spell	-10.5751
▁Jon	-10.5751
▁distracting	-10.5751
▁moon	-10.5752
▁mob	-10.5752
▁boss	-10.5756
▁singer	-10.5756
▁inspired	-10.5758
▁guard	-10.5759
▁artistic	-10.576
▁loss	-10.5762
tiny	-10.5762
▁Second	-10.5767
▁required	-10.5768
▁Come	-10.5769
▁offended	-10.5772
▁concerned	-10.5773
tz	-10.5775
▁Dar	-10.5781
▁reel	-10.5782
▁described	-10.579
cap	-10.5801
▁revealed	-10.581
movies	-10.5811
▁crude	-10.5826
hum	-10.5844
▁Dee	-10.5853
uous	-10.5853
▁Kath	-10.5853
▁0	-10.5854
▁ON	-10.5859
▁bucks	-10.586
▁Dona	-10.5866
Bone	-10.5885
lock	-10.5885
▁pig	-10.5888
ability	-10.5891
▁examples	-10.5909
▁dim	-10.5909
▁im	-10.5922
▁heck	-10.5927
▁voices	-10.5931
▁Ke	-10.5972
▁Col	-10.5991
▁Carro	-10.6
▁steps	-10.6001
▁pot	-10.6007
▁ice	-10.6011
▁results	-10.6028
▁stu	-10.6056
mu	-10.6059
ham	-10.6073
▁Str	-10.6078
▁ruins	-10.6083
▁Per	-10.6142
▁Ga	-10.6157
▁conversation	-10.6168
▁reaction	-10.6172
▁page	-10.6173
▁costume	-10.6173
▁expression	-10.6174
▁step	-10.6177
▁flaw	-10.6183
▁trick	-10.6187
000	-10.6226
At	-10.6252
cho	-10.6287
▁strip	-10.6324
ened	-10.633
▁LA	-10.6336
▁Anne	-10.6338
fu	-10.634
Ki	-10.6344
SE	-10.6346
▁sa	-10.6359
loo	-10.637
▁nose	-10.6373
▁farm	-10.6375
*****	-10.6379
▁spark	-10.6379
▁Sy	-10.6384
while	-10.6387
written	-10.639
▁Ku	-10.6394
ization	-10.6401
▁screw	-10.6402
▁surprising	-10.641
▁sudden	-10.6411
▁unfortunate	-10.6411
aving	-10.6416
▁Ex	-10.6429
▁villains	-10.6429
She	-10.6434
▁threat	-10.6439
▁teenage	-10.6443
thodox	-10.6448
▁wanna	-10.6448
▁snow	-10.6449
▁abysmal	-10.645
▁assistant	-10.645
▁generous	-10.645
▁qualities	-10.645
▁sacrifice	-10.645
▁tragic	-10.645
▁unwatchable	-10.645
Imagine	-10.645
necessarily	-10.645
▁Could	-10.645
▁Lawrence	-10.645
▁Massacre	-10.645
▁Swope	-10.645
▁UFO	-10.645
▁WORST	-10.645
▁church	-10.645
▁creating	-10.645
▁disjointed	-10.645
▁empty	-10.645
▁explicit	-10.645
▁frustrat	-10.645
▁guarantee	-10.645
▁mirror	-10.645
▁professor	-10.645
▁separate	-10.645
▁splatter	-10.645
▁structure	-10.645
▁thirty	-10.645
▁vomit	-10.645
▁Basically	-10.645
▁exotic	-10.645
▁Simon	-10.645
▁Trek	-10.645
▁virus	-10.645
▁motorcycle	-10.645
▁comedian	-10.645
▁Jessica	-10.645
▁cowboy	-10.645
▁pregnant	-10.645
▁ashamed	-10.645
▁context	-10.645
▁surface	-10.645
▁Brook	-10.645
▁football	-10.645
▁Cobra	-10.645
▁bull	-10.645
▁executive	-10.645
▁primar	-10.645
▁identity	-10.6451
▁weekend	-10.6451
▁massive	-10.6451
▁flee	-10.6451
▁Rome	-10.6451
▁initial	-10.6451
▁buff	-10.6451
▁merit	-10.6451
▁slice	-10.6451
▁witty	-10.6451
▁narration	-10.6452
▁price	-10.6452
▁journ	-10.6452
▁chest	-10.6453
▁Barry	-10.6453
▁invest	-10.6454
▁stale	-10.6454
▁insight	-10.6456
▁London	-10.6457
▁Obviously	-10.6457
▁engaging	-10.6457
▁sophisticated	-10.6457
▁fresh	-10.6457
▁starred	-10.6457
▁17	-10.6457
▁sexuality	-10.6457
▁Turner	-10.6457
▁Walker	-10.6458
▁Horrible	-10.6459
▁hotel	-10.6461
▁Satan	-10.6462
ung	-10.6464
▁useful	-10.6466
▁instantly	-10.6466
▁Gar	-10.6466
▁Australian	-10.6467
▁realise	-10.6467
▁intellectual	-10.647
▁text	-10.6471
▁ignored	-10.6471
comedic	-10.6472
▁Laure	-10.6473
▁Rose	-10.6474
▁filler	-10.6475
▁rushed	-10.6476
▁Dien	-10.6477
▁Mont	-10.6478
▁test	-10.6478
▁Honestly	-10.6479
▁Myers	-10.6482
▁ALL	-10.6483
▁PG	-10.6483
▁suits	-10.6484
▁stupidity	-10.6484
▁reporter	-10.6487
▁bitch	-10.6488
▁pity	-10.6488
▁string	-10.6495
▁hunter	-10.6498
▁Strange	-10.65
▁eating	-10.6508
▁collect	-10.6511
▁lying	-10.6513
▁caus	-10.6525
▁Carol	-10.6528
Jewish	-10.6542
▁Tru	-10.6545
▁Had	-10.655
▁sorts	-10.6551
▁admire	-10.6559
berg	-10.656
▁lay	-10.6568
▁Germans	-10.6577
rent	-10.658
▁Gold	-10.6582
▁novels	-10.6583
▁Band	-10.6583
▁sexually	-10.6584
▁Stu	-10.6585
▁mode	-10.6593
war	-10.6602
▁asked	-10.6621
▁passed	-10.6628
%	-10.6633
);	-10.6634
▁jobs	-10.664
▁Lot	-10.6648
▁clips	-10.665
▁slap	-10.6657
bar	-10.6658
▁Add	-10.6668
are	-10.6678
fect	-10.6682
aged	-10.6705
▁wh	-10.6723
gh	-10.673
▁flaws	-10.6731
▁Die	-10.6763
▁Barne	-10.6764
ou	-10.6777
TE	-10.6785
vel	-10.6789
Jo	-10.6799
▁states	-10.6802
▁`	-10.6817
▁Zo	-10.6819
AME	-10.6823
▁dar	-10.6824
ama	-10.6832
▁stereotype	-10.688
▁div	-10.6887
Ed	-10.689
▁Kar	-10.689
losing	-10.6905
▁minds	-10.6911
roll	-10.6913
unk	-10.6913
ENT	-10.692
▁idiot	-10.693
▁scientists	-10.6932
▁Evan	-10.694
▁Cha	-10.6954
▁teens	-10.6955
▁animal	-10.6985
▁lights	-10.699
shed	-10.6997
▁nut	-10.7013
▁dec	-10.705
▁depend	-10.707
▁Red	-10.7113
▁hits	-10.7117
▁Chris	-10.7127
▁attacks	-10.7134
▁feelings	-10.7138
writer	-10.7148
$	-10.7155
Dead	-10.7158
Robert	-10.7158
minute	-10.7159
Michael	-10.7159
world	-10.7159
something	-10.7159
Watch	-10.716
iled	-10.716
Look	-10.7161
▁establish	-10.717
▁pla	-10.7176
▁studios	-10.7176
▁Cat	-10.718
ew	-10.7185
▁achieve	-10.7186
▁creep	-10.7194
▁Australia	-10.72
▁natural	-10.7201
▁relate	-10.7202
▁remove	-10.7204
Fu	-10.7206
▁adapt	-10.7209
▁tr	-10.7216
▁Baldwin	-10.7219
▁Baxter	-10.7219
▁Elizabeth	-10.7219
▁Frankenstein	-10.7219
▁Graham	-10.7219
▁Taylor	-10.7219
▁clumsy	-10.7219
▁ethnic	-10.7219
▁glimpse	-10.7219
▁guilty	-10.7219
▁homage	-10.7219
▁incoherent	-10.7219
▁incredible	-10.7219
▁kitchen	-10.7219
▁rubber	-10.7219
▁segment	-10.7219
▁slapstick	-10.7219
▁stilted	-10.7219
▁travesty	-10.7219
▁universe	-10.7219
▁dreck	-10.7219
▁favourite	-10.7219
▁liberal	-10.7219
▁ANY	-10.7219
▁village	-10.7219
emember	-10.7219
▁memory	-10.7219
▁devote	-10.7219
▁concert	-10.7219
▁blew	-10.7219
▁employ	-10.7219
▁Something	-10.7219
▁slim	-10.7219
▁expert	-10.7219
▁facial	-10.7219
▁risk	-10.7219
▁locate	-10.7219
▁peace	-10.7219
▁sappy	-10.7219
▁Power	-10.7219
▁Greek	-10.7219
▁banal	-10.7219
▁spook	-10.7219
▁Sheriff	-10.722
▁buddy	-10.722
▁internet	-10.722
▁Planet	-10.722
▁consistent	-10.722
▁terrific	-10.722
▁Wind	-10.722
▁subplot	-10.722
▁Morgan	-10.7221
▁Paris	-10.7221
▁sentimental	-10.7222
▁lake	-10.7222
▁attend	-10.7222
▁devil	-10.7222
▁punch	-10.7222
▁blah	-10.7222
▁gut	-10.7223
▁Noah	-10.7224
Three	-10.7224
▁Stone	-10.7225
▁Brian	-10.7225
▁tasteless	-10.7225
▁FX	-10.7225
▁Harrison	-10.7226
▁BAD	-10.7226
▁Right	-10.7226
▁Road	-10.7226
▁THIS	-10.7226
▁intense	-10.7226
▁mock	-10.7227
▁UK	-10.7227
▁Italy	-10.7227
▁dirty	-10.7228
▁Old	-10.7228
▁Roman	-10.7228
▁Angela	-10.7229
▁flashes	-10.723
▁chicken	-10.723
▁beaten	-10.7231
▁handful	-10.7231
▁Rick	-10.7231
▁squad	-10.7233
▁defend	-10.7234
▁Kate	-10.7235
▁Los	-10.7235
▁Secret	-10.7236
▁stands	-10.7236
▁pill	-10.7237
▁Louis	-10.7237
▁Eric	-10.7238
rix	-10.7239
▁Americans	-10.7243
▁dresses	-10.7244
▁12	-10.7248
▁wire	-10.7249
▁achieved	-10.725
lord	-10.725
▁drivel	-10.7251
▁circumstances	-10.7253
▁surrounding	-10.7254
hip	-10.7256
▁Dark	-10.7256
▁TO	-10.7256
▁promote	-10.7258
▁Gun	-10.7258
▁Sound	-10.726
▁foot	-10.7266
▁MA	-10.727
▁hall	-10.727
▁handle	-10.727
▁fooled	-10.7279
NEVER	-10.728
away	-10.7281
▁tripe	-10.7282
▁stranger	-10.7286
▁mentally	-10.7287
▁games	-10.7295
▁manager	-10.7297
▁scar	-10.7298
lit	-10.7299
▁offered	-10.7301
▁referr	-10.7302
▁sing	-10.7309
▁grown	-10.7309
▁raped	-10.731
▁rolling	-10.7313
▁cell	-10.7316
▁shoe	-10.7317
▁failing	-10.7321
▁views	-10.7324
▁Were	-10.7336
▁ya	-10.7338
▁expos	-10.7342
nda	-10.7363
(..	-10.7365
▁tears	-10.7367
▁appealing	-10.7378
▁viewed	-10.7378
aka	-10.7379
▁noir	-10.7386
▁pin	-10.7405
▁wr	-10.7408
▁Bra	-10.7409
▁Dam	-10.7409
albe	-10.741
eath	-10.7411
▁nightmares	-10.7414
▁goal	-10.7417
nyone	-10.7418
▁Dur	-10.7425
Neill	-10.7427
▁Rod	-10.7428
▁praise	-10.7435
▁followed	-10.7436
▁explains	-10.7454
▁numbers	-10.7454
▁topic	-10.7459
▁belongs	-10.746
▁ca	-10.7467
▁Tra	-10.7472
aries	-10.7475
10	-10.7482
▁closed	-10.7482
▁button	-10.7489
▁judg	-10.749
▁buying	-10.7509
▁players	-10.7522
▁hearing	-10.753
▁Ruth	-10.7531
▁Sand	-10.7549
rying	-10.756
▁attempted	-10.7567
▁vampires	-10.7577
ET	-10.7582
ked	-10.7598
rog	-10.7615
▁cuts	-10.7626
▁fund	-10.7649
ix	-10.7668
▁broad	-10.7676
▁Rid	-10.7678
▁sta	-10.7685
▁eat	-10.7696
Demon	-10.7696
cha	-10.7698
▁pit	-10.7704
▁accident	-10.7722
▁slu	-10.7744
▁headed	-10.7752
lay	-10.776
HE	-10.7762
fer	-10.7778
▁dollar	-10.778
▁emotions	-10.7791
▁powers	-10.7801
▁Lowe	-10.7817
▁Boo	-10.7829
void	-10.7831
▁media	-10.7832
dding	-10.7835
rton	-10.7875
hop	-10.7884
▁Lad	-10.7902
ware	-10.7913
▁player	-10.7929
▁/>*	-10.7932
▁dreams	-10.7935
▁PR	-10.794
▁Wars	-10.7945
Ja	-10.7949
▁careers	-10.7958
fight	-10.7964
read	-10.7964
▁forth	-10.7964
▁gal	-10.7966
face	-10.7966
▁Tan	-10.7967
▁levels	-10.7969
funny	-10.7988
ez	-10.7989
wood	-10.7991
clear	-10.7991
mouth	-10.7992
includ	-10.7992
With	-10.7992
shot	-10.7992
dog	-10.7996
ries	-10.7996
▁connect	-10.8
▁concern	-10.8004
▁IT	-10.8009
▁remote	-10.8013
▁unintentional	-10.8015
▁dro	-10.8015
CE	-10.8016
▁ju	-10.8022
▁Ever	-10.8034
▁unlike	-10.8037
loved	-10.8037
▁shop	-10.8039
played	-10.804
▁preach	-10.804
▁incident	-10.8051
▁photo	-10.8052
▁pseudo	-10.8052
]	-10.8052
▁Bullock	-10.8052
▁Dillon	-10.8052
▁Field	-10.8052
▁Matthew	-10.8052
▁Murphy	-10.8052
▁Segal	-10.8052
▁Should	-10.8052
▁Wilson	-10.8052
▁associate	-10.8052
▁border	-10.8052
▁charisma	-10.8052
▁confess	-10.8052
▁corpse	-10.8052
▁descend	-10.8052
▁disguise	-10.8052
▁families	-10.8052
▁generation	-10.8052
▁genetic	-10.8052
▁insipid	-10.8052
▁knife	-10.8052
▁uniform	-10.8052
▁vulgar	-10.8052
▁BUT	-10.8052
▁buddies	-10.8052
▁downhill	-10.8052
▁enemy	-10.8052
▁funniest	-10.8052
▁technology	-10.8052
▁accus	-10.8052
▁disagree	-10.8052
▁Blade	-10.8052
▁extent	-10.8052
▁guest	-10.8052
▁isolated	-10.8052
▁motive	-10.8052
▁Azte	-10.8052
▁pray	-10.8052
▁Carrey	-10.8052
▁convenient	-10.8052
▁cornfield	-10.8052
▁adopt	-10.8052
▁plague	-10.8052
▁wrap	-10.8052
▁1960	-10.8052
▁demand	-10.8052
aptain	-10.8052
▁Father	-10.8052
▁basis	-10.8052
▁dubbing	-10.8052
▁NOTHING	-10.8052
▁nonsensical	-10.8052
▁chew	-10.8052
▁Johnny	-10.8053
▁Terminator	-10.8053
▁competent	-10.8053
▁melodramatic	-10.8053
▁derivative	-10.8053
▁embarrassment	-10.8053
▁Comedy	-10.8053
▁Tony	-10.8053
▁silence	-10.8053
▁Western	-10.8053
▁Luther	-10.8053
▁alter	-10.8053
▁existence	-10.8053
▁State	-10.8054
▁Stick	-10.8054
▁tax	-10.8054
▁brave	-10.8055
▁selection	-10.8055
▁behave	-10.8055
▁meaningful	-10.8056
▁kidnap	-10.8056
▁hardcore	-10.8056
▁priva	-10.8056
▁Over	-10.8056
▁tank	-10.8056
▁regardless	-10.8057
▁minority	-10.8057
▁Carson	-10.8057
▁acceptable	-10.8058
▁Never	-10.8058
▁proof	-10.8058
▁slave	-10.8058
▁conflict	-10.8058
▁Albert	-10.8059
▁washed	-10.806
▁White	-10.806
▁Think	-10.806
▁plastic	-10.806
▁Hill	-10.8061
▁Kill	-10.8061
▁photographer	-10.8062
▁passable	-10.8066
▁Special	-10.8066
▁Dick	-10.8066
▁Bell	-10.8066
athan	-10.8067
▁stolen	-10.8068
▁Sub	-10.8069
▁Norman	-10.8069
▁Rather	-10.807
▁hitting	-10.8071
▁partner	-10.8071
▁fortune	-10.8071
▁barrel	-10.8071
▁Law	-10.8072
▁Outer	-10.8072
▁dig	-10.8074
ivate	-10.8074
▁abandoned	-10.8075
▁Dean	-10.8077
▁letter	-10.8077
▁Sex	-10.8079
▁corner	-10.8079
▁Really	-10.808
▁bla	-10.8082
▁si	-10.8082
▁insist	-10.8087
▁mass	-10.8087
▁Sorry	-10.8088
▁16	-10.8088
▁Pul	-10.8089
▁Milo	-10.809
▁plann	-10.8094
▁entertained	-10.8097
▁connected	-10.8101
▁properly	-10.8103
ator	-10.8103
▁strike	-10.8105
▁Poe	-10.8105
▁Cla	-10.8108
▁absent	-10.8108
▁heroes	-10.8109
▁army	-10.8113
▁grave	-10.8122
▁Cast	-10.8123
▁Need	-10.8127
▁tortured	-10.813
▁_	-10.8137
▁Ten	-10.8137
▁Ya	-10.8139
blown	-10.8143
▁inject	-10.8144
▁da	-10.8151
▁creators	-10.8164
▁ste	-10.8189
▁breasts	-10.8189
▁attacked	-10.8189
▁char	-10.8193
▁Bea	-10.8194
▁dislike	-10.82
▁surreal	-10.8203
▁techniques	-10.8214
▁humans	-10.8214
▁remark	-10.8249
ford	-10.8255
peaking	-10.8258
▁aired	-10.8261
▁dedicat	-10.8263
▁shower	-10.8278
part	-10.8286
KING	-10.8289
▁graphics	-10.8291
▁offend	-10.8296
lent	-10.8301
▁covered	-10.8302
tan	-10.8315
▁Kids	-10.8315
▁hundreds	-10.8324
▁poo	-10.8343
TER	-10.8348
▁murderer	-10.8354
▁judge	-10.8355
▁messages	-10.8357
▁Art	-10.8359
▁Mari	-10.8372
▁plant	-10.8377
▁expressions	-10.8392
GE	-10.8393
▁accidental	-10.8393
▁ver	-10.8395
anger	-10.8396
20	-10.8403
Lo	-10.8406
uh	-10.8412
▁struggl	-10.8419
cat	-10.8436
▁Ser	-10.8442
▁flashbacks	-10.8443
▁nicely	-10.8447
De	-10.845
▁Yo	-10.845
▁hoped	-10.8475
▁Pi	-10.8482
▁trap	-10.8492
▁breaks	-10.8498
▁em	-10.8525
▁dep	-10.853
▁combine	-10.8538
ited	-10.8557
ES	-10.8566
▁Gene	-10.8607
▁reli	-10.8611
law	-10.8612
▁litera	-10.8639
▁Angel	-10.8643
▁eli	-10.8649
▁shut	-10.8657
▁thug	-10.8661
handed	-10.8671
lli	-10.8675
▁bullet	-10.8678
▁hundred	-10.8681
▁adult	-10.8684
▁com	-10.8686
▁Kid	-10.8688
AL	-10.8693
▁notable	-10.8693
▁bone	-10.8695
▁chop	-10.8704
▁perm	-10.8717
▁emerge	-10.8722
ept	-10.8762
▁theory	-10.8764
▁Have	-10.8769
ool	-10.877
▁belong	-10.8776
▁varie	-10.8777
▁PO	-10.8786
▁bur	-10.8804
grade	-10.8816
▁format	-10.8817
ams	-10.8817
▁hunt	-10.8834
▁---	-10.8854
▁Jud	-10.8857
▁entertain	-10.8885
▁prof	-10.8891
▁wander	-10.8893
▁disgust	-10.8896
omi	-10.8899
point	-10.89
school	-10.8901
born	-10.8902
class	-10.8902
water	-10.8904
watch	-10.8906
▁impress	-10.8908
cience	-10.891
vision	-10.8911
▁Ali	-10.8912
▁haunt	-10.8914
▁lie	-10.8917
▁hi	-10.8918
▁quiet	-10.892
beat	-10.8923
rich	-10.8926
ssed	-10.8926
hour	-10.8927
Here	-10.8928
▁confuse	-10.8931
▁replace	-10.8933
▁East	-10.8935
▁comp	-10.8937
also	-10.8952
conscious	-10.8955
▁predict	-10.8956
▁discuss	-10.8957
▁opt	-10.896
▁Japan	-10.8961
▁central	-10.8961
▁exercise	-10.8961
▁treasure	-10.8961
▁tunnel	-10.8961
▁unpleasant	-10.8961
·	-10.8961
▁2001	-10.8961
▁Actor	-10.8961
▁Blockbuster	-10.8961
▁Crawford	-10.8961
▁Dragon	-10.8961
▁Hogan	-10.8961
▁Quaid	-10.8961
▁Reynolds	-10.8961
▁Tanzania	-10.8961
▁VHS	-10.8961
▁celluloid	-10.8961
▁dinosaur	-10.8961
▁equipment	-10.8961
▁gorilla	-10.8961
▁gruesome	-10.8961
▁incompetent	-10.8961
▁inconsistent	-10.8961
▁intrigue	-10.8961
▁misleading	-10.8961
▁morning	-10.8961
▁nowadays	-10.8961
▁psychopath	-10.8961
▁racial	-10.8961
▁revolve	-10.8961
▁stunning	-10.8961
▁throat	-10.8961
▁tremendous	-10.8961
▁triangle	-10.8961
▁Hudson	-10.8961
▁MGM	-10.8961
▁betray	-10.8961
▁coffin	-10.8961
▁credible	-10.8961
▁digital	-10.8961
▁guide	-10.8961
▁ritual	-10.8961
▁uncomfortable	-10.8961
▁warrior	-10.8961
Would	-10.8961
▁Sarah	-10.8961
▁abilities	-10.8961
▁concentrat	-10.8961
▁contact	-10.8961
▁BBC	-10.8961
▁measure	-10.8961
▁Again	-10.8961
▁awesome	-10.8961
▁league	-10.8961
▁overcome	-10.8961
▁turd	-10.8961
▁wealth	-10.8961
▁Jesus	-10.8961
▁neck	-10.8961
▁holiday	-10.8961
▁presum	-10.8961
▁heaven	-10.8961
▁Connery	-10.8961
▁Eastwood	-10.8961
▁neat	-10.8961
▁kung	-10.8961
▁bump	-10.8961
▁sleazy	-10.8961
▁distinct	-10.8961
▁lawyer	-10.8961
▁1990	-10.8962
▁1930	-10.8962
▁nerve	-10.8962
▁cheer	-10.8962
▁speed	-10.8962
▁Brothers	-10.8962
▁angel	-10.8962
▁Randy	-10.8962
▁Kurtz	-10.8962
▁tourist	-10.8962
▁Downey	-10.8962
▁bird	-10.8962
▁yellow	-10.8962
▁maniac	-10.8962
▁Morlock	-10.8962
▁Troma	-10.8962
▁possibilities	-10.8962
▁yard	-10.8962
▁profound	-10.8962
▁Marlow	-10.8962
▁HBO	-10.8962
▁sword	-10.8963
▁Roche	-10.8963
▁criticism	-10.8963
▁elder	-10.8963
▁Lynch	-10.8963
▁hostage	-10.8963
▁visuals	-10.8963
▁glow	-10.8964
▁distance	-10.8964
▁subtlety	-10.8964
▁audio	-10.8964
▁Edgar	-10.8964
▁trite	-10.8964
▁closing	-10.8964
▁imagery	-10.8965
▁hideous	-10.8965
▁European	-10.8965
▁reject	-10.8965
▁Carey	-10.8965
▁Jean	-10.8966
▁Hank	-10.8966
▁toilet	-10.8966
▁Denni	-10.8966
overty	-10.8967
▁inane	-10.8968
▁Uwe	-10.8968
▁tight	-10.8968
▁suspenseful	-10.8968
▁hill	-10.8969
▁cartoons	-10.897
▁Probably	-10.897
▁Franco	-10.897
▁trace	-10.897
▁Lang	-10.8971
▁boil	-10.8971
▁Howard	-10.8971
▁Dante	-10.8971
▁Israeli	-10.8972
▁fiancée	-10.8973
▁occup	-10.8973
▁chain	-10.8973
▁excitement	-10.8973
▁Caine	-10.8974
▁cabin	-10.8974
▁End	-10.8976
▁humorous	-10.8976
▁vast	-10.8976
▁pirate	-10.8976
▁Blue	-10.8976
▁Danny	-10.8978
witted	-10.8978
▁Andrew	-10.8981
▁photographed	-10.8982
▁damage	-10.8983
▁hippie	-10.8985
▁annoyed	-10.8987
▁Max	-10.8987
▁coat	-10.8989
▁thankfully	-10.899
▁wreck	-10.899
▁Way	-10.8991
Yes	-10.8992
▁chosen	-10.8994
▁Queen	-10.8996
▁Someone	-10.8999
▁z	-10.8999
▁**	-10.8999
▁bitter	-10.8999
▁strict	-10.9
▁OUT	-10.9001
▁receiv	-10.9001
▁padd	-10.9004
▁Fl	-10.9006
▁Except	-10.9009
▁impressed	-10.901
▁noise	-10.901
▁Part	-10.901
▁Truly	-10.9012
▁Plan	-10.9014
ILL	-10.9016
▁counter	-10.9016
species	-10.902
ridge	-10.9021
NC	-10.9023
▁handled	-10.9025
▁sand	-10.9026
▁hunting	-10.9029
▁fate	-10.903
▁dated	-10.903
▁Roy	-10.9033
▁witnessed	-10.9038
▁Mu	-10.904
▁served	-10.904
toxic	-10.9047
▁Frankly	-10.9051
▁loosely	-10.9055
wer	-10.9055
▁Air	-10.9067
▁deserved	-10.9083
ux	-10.9085
▁winn	-10.9092
▁swing	-10.9098
▁deeply	-10.9101
acting	-10.9108
▁moved	-10.911
▁defi	-10.9114
▁hanging	-10.9118
ika	-10.9122
▁Lou	-10.9124
▁fired	-10.913
▁comical	-10.9132
▁exaggerat	-10.9139
▁errors	-10.914
▁Total	-10.9147
▁suffered	-10.9151
▁despise	-10.9153
▁Make	-10.9158
▁props	-10.9168
▁quarter	-10.918
▁pol	-10.921
▁maker	-10.9212
▁escapes	-10.9215
US	-10.9217
▁delivers	-10.9222
▁stinks	-10.9224
posing	-10.9225
▁legs	-10.9233
▁agreed	-10.9237
▁labor	-10.9247
hoo	-10.9251
lum	-10.9256
▁kn	-10.9259
▁judges	-10.9271
▁eats	-10.9282
▁Ken	-10.9296
mber	-10.9316
▁bite	-10.9321
AST	-10.9324
logue	-10.9329
▁conversations	-10.9335
▁leg	-10.934
▁chooses	-10.9366
▁BE	-10.9409
▁killings	-10.9412
fire	-10.9422
Ste	-10.9465
▁faith	-10.9483
ica	-10.9505
ien	-10.952
ature	-10.9524
▁attempting	-10.9536
▁Run	-10.9548
ope	-10.9557
hal	-10.9558
cia	-10.956
Mo	-10.9565
▁stab	-10.9566
ella	-10.9581
▁graphic	-10.962
▁indicat	-10.9628
▁report	-10.9632
▁Lu	-10.9643
▁stink	-10.9652
▁controll	-10.9653
nal	-10.9669
▁individual	-10.9676
▁Girl	-10.968
▁stunt	-10.968
▁screenwriter	-10.9681
▁clip	-10.9684
/10	-10.9686
▁movement	-10.9687
▁snake	-10.9689
under	-10.969
▁u	-10.9695
hu	-10.9705
▁clo	-10.9707
▁fed	-10.9719
▁Sto	-10.9719
▁walls	-10.975
only	-10.9774
bot	-10.9778
ken	-10.9826
▁bin	-10.9828
ject	-10.9843
look	-10.9852
▁resembl	-10.987
EP	-10.9879
▁delight	-10.9891
friend	-10.9896
foot	-10.9899
Please	-10.9901
load	-10.9901
James	-10.9901
thriller	-10.9901
video	-10.9901
Bad	-10.9901
from	-10.9902
why	-10.9902
character	-10.9902
road	-10.9904
dead	-10.9905
cast	-10.9906
awful	-10.9907
ounce	-10.9908
after	-10.9908
type	-10.9911
▁limit	-10.9913
Love	-10.9915
Christ	-10.9923
string	-10.9926
▁ignore	-10.993
▁robber	-10.9935
▁stole	-10.9946
ook	-10.9946
ranged	-10.9955
▁moron	-10.9955
itting	-10.9956
▁Europe	-10.9958
▁twin	-10.9961
▁Phil	-10.9961
▁Chappelle	-10.9961
▁Coburn	-10.9961
▁England	-10.9961
▁Imperium	-10.9961
▁Keitel	-10.9961
▁Mexico	-10.9961
▁Nightbeast	-10.9961
▁Swayze	-10.9961
▁Video	-10.9961
▁Wagner	-10.9961
▁Washington	-10.9961
▁adequate	-10.9961
▁backdrop	-10.9961
▁bikini	-10.9961
▁borrow	-10.9961
▁campaign	-10.9961
▁defense	-10.9961
▁depressed	-10.9961
▁encourage	-10.9961
▁evident	-10.9961
▁filth	-10.9961
▁gorgeous	-10.9961
▁hokey	-10.9961
▁illogical	-10.9961
▁inspiration	-10.9961
▁mountain	-10.9961
▁outrageous	-10.9961
▁parallel	-10.9961
▁perspective	-10.9961
▁politics	-10.9961
▁refreshing	-10.9961
▁sidekick	-10.9961
▁subsequent	-10.9961
▁unexpected	-10.9961
▁urban	-10.9961
▁vicious	-10.9961
▁vigilante	-10.9961
▁werewolf	-10.9961
Spoiler	-10.9961
▁Aussie	-10.9961
▁Caribe	-10.9961
▁Jeremy	-10.9961
▁Jeroen	-10.9961
▁churn	-10.9961
▁combat	-10.9961
▁dreary	-10.9961
▁entries	-10.9961
▁perpetua	-10.9961
▁recover	-10.9961
▁Banner	-10.9961
▁Bruno	-10.9961
▁funnier	-10.9961
▁rehash	-10.9961
▁irritate	-10.9961
▁recall	-10.9961
▁fame	-10.9961
▁grainy	-10.9961
▁swimming	-10.9961
▁blank	-10.9961
▁civilians	-10.9961
▁disgrace	-10.9961
▁honor	-10.9961
▁portion	-10.9961
▁afford	-10.9961
▁glass	-10.9961
▁worn	-10.9961
▁FBI	-10.9961
▁ensue	-10.9961
▁massacre	-10.9961
▁Phillip	-10.9961
▁official	-10.9961
▁LOVE	-10.9961
▁confusion	-10.9961
▁DEAD	-10.9961
▁client	-10.9961
▁destruction	-10.9961
▁network	-10.9961
▁Ern	-10.9961
▁address	-10.9961
▁trilogy	-10.9961
▁security	-10.9962
▁citizen	-10.9962
▁plausible	-10.9962
loyd	-10.9962
▁multiple	-10.9962
OLD	-10.9962
Creature	-10.9962
▁thread	-10.9962
▁intent	-10.9962
▁stylish	-10.9962
▁Talk	-10.9962
▁childhood	-10.9963
▁Coward	-10.9963
▁punish	-10.9963
▁tribute	-10.9963
▁aircraft	-10.9963
▁prize	-10.9963
▁Helen	-10.9963
▁Harry	-10.9963
▁Wild	-10.9963
▁Jimmy	-10.9963
▁cookie	-10.9963
▁Know	-10.9964
▁yell	-10.9964
▁proceedings	-10.9964
▁fellow	-10.9964
▁Miles	-10.9965
▁insert	-10.9965
▁2/10	-10.9965
▁Bond	-10.9965
▁Green	-10.9965
▁Duke	-10.9965
▁Sandra	-10.9966
▁Barba	-10.9966
▁option	-10.9966
▁nine	-10.9966
▁Water	-10.9966
▁Chase	-10.9966
ino	-10.9967
▁Hugh	-10.9967
▁countryside	-10.9967
▁shout	-10.9968
▁trivial	-10.9968
▁wig	-10.9968
▁Mason	-10.997
▁Jackson	-10.997
▁Shorty	-10.9971
▁1/2	-10.9971
inating	-10.9973
▁brat	-10.9973
▁Wick	-10.9974
▁addict	-10.9974
▁giggl	-10.9975
▁Jose	-10.9975
▁Piranha	-10.9978
▁sympathetic	-10.9978
▁rambling	-10.9979
▁Skip	-10.9979
▁fourth	-10.9979
▁blonde	-10.9981
▁Deth	-10.9981
▁Famil	-10.9982
▁crashes	-10.9982
▁Whatever	-10.9983
▁Character	-10.9983
▁satisfied	-10.9984
▁erotic	-10.9984
hood	-10.9985
▁goof	-10.9986
▁uneven	-10.9986
▁brand	-10.9987
▁shelf	-10.9988
▁doors	-10.9988
▁Moto	-10.9989
▁mild	-10.9991
▁21	-10.9991
▁mindless	-10.9993
▁savage	-10.9993
ular	-10.9995
▁replaced	-10.9996
▁altogether	-10.9997
name	-11
▁Val	-11
▁senseless	-11.0002
▁Put	-11.0008
▁wave	-11.0008
▁None	-11.0009
▁boot	-11.001
▁unintentionally	-11.001
ota	-11.0014
▁Alan	-11.0018
▁satisfying	-11.0022
▁lucky	-11.0022
▁wildly	-11.0023
existent	-11.0023
▁established	-11.0026
ese	-11.0034
▁mute	-11.0036
▁weight	-11.0037
ridden	-11.0038
▁Land	-11.0042
▁mistaken	-11.0046
▁performed	-11.0047
▁Greg	-11.0048
▁rolled	-11.0052
Gere	-11.0055
Un	-11.0061
▁effectively	-11.0061
▁PC	-11.0061
▁Eye	-11.0063
▁gain	-11.0067
▁feed	-11.0076
▁Bor	-11.0079
▁Stevens	-11.0083
▁dub	-11.0084
▁politically	-11.0091
▁Victoria	-11.0104
ATE	-11.0116
▁prisoner	-11.012
lore	-11.0137
Psycho	-11.014
▁Ark	-11.0142
▁finale	-11.0148
▁touched	-11.0155
▁Master	-11.0163
▁landing	-11.0166
▁sincere	-11.0175
▁core	-11.0181
▁blowing	-11.0182
▁refuses	-11.0185
▁opened	-11.019
▁myth	-11.0192
▁sto	-11.0199
▁Pat	-11.0225
▁magical	-11.023
té	-11.0235
▁inform	-11.0249
▁stunts	-11.0252
▁chopp	-11.0255
ERS	-11.0256
UST	-11.0257
!!!!!	-11.0267
▁bones	-11.0284
▁shoulder	-11.0285
▁medi	-11.0288
▁classical	-11.0305
efer	-11.0313
get	-11.032
▁beautifully	-11.0344
▁Pol	-11.0368
▁ants	-11.037
uty	-11.037
▁stru	-11.037
▁reactions	-11.0377
45	-11.038
▁nail	-11.0384
bit	-11.039
▁ahead	-11.039
▁meeting	-11.0409
▁sin	-11.0421
▁Bri	-11.0432
itle	-11.0432
▁Bette	-11.0435
such	-11.0441
lk	-11.0466
▁picking	-11.0484
takes	-11.0485
▁rules	-11.0504
▁continues	-11.0504
▁unit	-11.0517
▁awake	-11.0538
bla	-11.0551
Me	-11.0559
▁accounts	-11.0568
▁assum	-11.0577
ori	-11.0591
duced	-11.0594
▁exists	-11.0605
ski	-11.0621
worker	-11.0653
▁Sch	-11.0657
bbing	-11.0659
▁dud	-11.066
minded	-11.0683
nis	-11.0696
ola	-11.0712
hr	-11.0721
ception	-11.073
hair	-11.0742
▁stare	-11.075
big	-11.0773
▁via	-11.0786
▁nightmare	-11.0793
lump	-11.0796
▁weapon	-11.0797
▁Wa	-11.0812
▁Neil	-11.0813
ified	-11.0817
core	-11.0822
ude	-11.0836
2)	-11.0836
▁Mat	-11.0841
OW	-11.0849
▁bare	-11.0857
occasionally	-11.0868
▁Abb	-11.0888
▁wont	-11.0889
▁occasion	-11.0892
mme	-11.09
▁Har	-11.0905
Go	-11.0914
▁promo	-11.0914
▁Cool	-11.0917
▁Tri	-11.0933
▁sometime	-11.0955
special	-11.0973
▁flip	-11.0992
oid	-11.1
direct	-11.1002
▁satisfy	-11.1005
known	-11.1007
▁challenge	-11.1009
word	-11.1011
Boy	-11.1011
THE	-11.1011
inister	-11.1011
Two	-11.1011
place	-11.1012
famous	-11.1012
Black	-11.1012
Movie	-11.1012
effect	-11.1012
Also	-11.1012
girl	-11.1012
actress	-11.1012
Star	-11.1013
think	-11.1013
wife	-11.1013
motion	-11.1016
Jack	-11.1017
since	-11.1019
▁et	-11.1022
▁link	-11.1023
series	-11.1023
fall	-11.1026
OK	-11.1034
story	-11.1034
▁balance	-11.104
▁engage	-11.104
▁prepare	-11.1041
▁sho	-11.1041
▁solve	-11.1041
▁Final	-11.1047
▁blond	-11.105
▁quit	-11.1053
▁forgive	-11.1053
▁whil	-11.1053
warm	-11.1055
▁surf	-11.106
▁confront	-11.1064
▁interpret	-11.1068
▁rebel	-11.1069
▁electric	-11.107
▁argu	-11.1071
▁identi	-11.1072
ential	-11.1072
▁qua	-11.1072
▁airplane	-11.1072
▁camcorder	-11.1072
▁compliment	-11.1072
▁enthusiasm	-11.1072
▁installment	-11.1072
▁sabotage	-11.1072
▁sleaze	-11.1072
▁swallow	-11.1072
▁synopsis	-11.1072
▁transport	-11.1072
▁widow	-11.1072
”	-11.1072
▁2005	-11.1072
▁Almighty	-11.1072
▁Alpha	-11.1072
▁Bishop	-11.1072
▁Bollywood	-11.1072
▁Central	-11.1072
▁Keaton	-11.1072
▁Kersey	-11.1072
▁Komodo	-11.1072
▁Leonard	-11.1072
▁Pearce	-11.1072
▁Personally	-11.1072
▁Rathbone	-11.1072
▁Reeves	-11.1072
▁Revolution	-11.1072
▁Saturday	-11.1072
▁Vegas	-11.1072
▁Women	-11.1072
▁abortion	-11.1072
▁advantage	-11.1072
▁ambitious	-11.1072
▁assault	-11.1072
▁behaviour	-11.1072
▁blockbuster	-11.1072
▁bottle	-11.1072
▁complicated	-11.1072
▁curiosity	-11.1072
▁disbelief	-11.1072
▁distributor	-11.1072
▁elephant	-11.1072
▁enemies	-11.1072
▁equivalent	-11.1072
▁hollow	-11.1072
▁humiliat	-11.1072
▁imitation	-11.1072
▁irrelevant	-11.1072
▁monologue	-11.1072
▁neurotic	-11.1072
▁phrase	-11.1072
▁popcorn	-11.1072
▁prevent	-11.1072
▁prominent	-11.1072
▁psychic	-11.1072
▁repugnant	-11.1072
▁schlock	-11.1072
▁slaughter	-11.1072
▁spectacular	-11.1072
▁supreme	-11.1072
▁tiresome	-11.1072
▁virgin	-11.1072
▁virtual	-11.1072
▁voodoo	-11.1072
▁worried	-11.1072
▁GOD	-11.1072
▁Greece	-11.1072
▁NBC	-11.1072
▁Nelson	-11.1072
▁Perkins	-11.1072
▁abundan	-11.1072
▁frightening	-11.1072
▁solution	-11.1072
▁unfold	-11.1072
obsessed	-11.1072
▁Watson	-11.1072
▁danton	-11.1072
marathon	-11.1072
▁Muni	-11.1072
▁Shame	-11.1072
▁apply	-11.1072
▁clothing	-11.1072
▁harass	-11.1072
▁status	-11.1072
▁EVERYTHING	-11.1072
▁firm	-11.1072
▁deaf	-11.1072
▁Fanny	-11.1072
▁stress	-11.1072
▁Fair	-11.1072
▁Sheila	-11.1072
▁spider	-11.1072
▁caricatur	-11.1072
▁shirt	-11.1072
Ninja	-11.1072
▁Shearer	-11.1072
Benji	-11.1072
▁legitimate	-11.1072
▁assembl	-11.1072
▁controversial	-11.1072
▁veteran	-11.1072
▁Kind	-11.1073
▁Besides	-11.1073
▁Music	-11.1073
▁command	-11.1073
▁blend	-11.1073
▁mummy	-11.1073
▁contrast	-11.1073
▁lunch	-11.1073
▁cluck	-11.1073
▁abrupt	-11.1073
▁tolerate	-11.1073
▁squea	-11.1073
▁muddle	-11.1073
▁Garfield	-11.1073
▁sloppy	-11.1073
▁Merce	-11.1073
▁birthday	-11.1073
▁debt	-11.1073
▁montage	-11.1073
WAY	-11.1073
▁flood	-11.1073
▁Debbie	-11.1073
▁medical	-11.1073
▁jazz	-11.1073
▁Lucy	-11.1073
▁kidnapped	-11.1073
UCK	-11.1073
▁Valley	-11.1073
▁curse	-11.1073
▁population	-11.1073
about	-11.1074
▁definition	-11.1074
▁Davis	-11.1074
▁Head	-11.1074
▁agenda	-11.1074
▁symbolism	-11.1074
▁slack	-11.1074
▁hung	-11.1074
▁Michelle	-11.1074
▁argument	-11.1074
uthern	-11.1074
▁block	-11.1075
▁static	-11.1075
▁outfit	-11.1075
▁leap	-11.1075
▁shake	-11.1075
▁1/10	-11.1075
▁Damme	-11.1075
▁spill	-11.1075
▁reflection	-11.1075
▁vanish	-11.1075
▁disconnected	-11.1076
▁foolish	-11.1076
▁investigation	-11.1076
▁wake	-11.1076
▁Tower	-11.1076
▁Perch	-11.1076
▁safety	-11.1076
▁MAN	-11.1076
▁sky	-11.1076
▁Academy	-11.1076
▁diner	-11.1076
▁premiere	-11.1076
▁unbearable	-11.1076
▁Spielberg	-11.1076
▁dating	-11.1077
▁Drake	-11.1077
▁Wong	-11.1077
▁Hanna	-11.1077
▁storytelling	-11.1078
▁wow	-11.1078
▁rocket	-11.1078
ploy	-11.1078
visible	-11.1078
▁POW	-11.1079
▁tub	-11.1079
▁metal	-11.1079
▁uncle	-11.1079
▁ego	-11.1079
▁Hitch	-11.1079
▁werewolves	-11.1079
▁babe	-11.108
▁Bridge	-11.108
▁attraction	-11.1081
▁Hong	-11.1082
▁amused	-11.1082
uffy	-11.1082
▁everywhere	-11.1082
▁axe	-11.1082
▁owe	-11.1083
▁Rita	-11.1083
▁moronic	-11.1083
▁madness	-11.1084
▁Mongolian	-11.1084
▁conceived	-11.1084
▁overacting	-11.1084
▁Claude	-11.1084
▁Neither	-11.1084
▁translate	-11.1084
▁Carlos	-11.1084
▁chao	-11.1085
▁blast	-11.1085
▁tip	-11.1086
▁wedding	-11.1086
▁Crow	-11.1086
▁Lance	-11.1086
ikes	-11.1086
ickey	-11.1087
▁selfish	-11.1087
▁Such	-11.1087
▁Baby	-11.1088
▁belt	-11.1088
▁Fang	-11.1089
▁tick	-11.1089
▁grass	-11.1089
▁Herman	-11.109
▁Apart	-11.109
▁Ricci	-11.1091
▁importance	-11.1091
▁Lestat	-11.1091
▁Worth	-11.1091
▁sufficient	-11.1091
▁Worst	-11.1091
▁disturbed	-11.1093
▁cave	-11.1095
organ	-11.1095
▁introduce	-11.1095
▁cook	-11.1095
indulgent	-11.1097
▁smoking	-11.1098
descent	-11.11
▁Bible	-11.11
▁Grade	-11.1101
▁pian	-11.1103
▁prepared	-11.1104
▁Party	-11.1105
▁realism	-11.1106
▁homeless	-11.1106
▁Heather	-11.1106
▁Leach	-11.1108
▁frequently	-11.1108
▁23	-11.1109
▁Lyn	-11.1111
▁faded	-11.1112
▁Later	-11.1112
racing	-11.1116
▁chore	-11.1117
▁Hence	-11.1117
▁Seem	-11.1119
▁butcher	-11.112
▁CG	-11.112
▁stripper	-11.1121
bbed	-11.1124
▁national	-11.1126
▁unlikely	-11.1127
▁Gay	-11.1129
▁candy	-11.1129
▁finest	-11.1131
▁ranch	-11.1132
▁dire	-11.1132
▁naturally	-11.1132
▁thrilling	-11.1133
▁tame	-11.1138
▁conclude	-11.1139
▁stated	-11.114
ystery	-11.114
▁hood	-11.1148
▁sucker	-11.115
▁Gein	-11.1151
▁Boring	-11.1152
!!!!!!!!	-11.1164
▁reasonable	-11.1166
▁prom	-11.1169
ssengers	-11.1174
▁lifeless	-11.1175
▁ram	-11.1178
rlock	-11.1179
▁accepted	-11.118
▁spoiled	-11.118
cop	-11.1183
▁emotionally	-11.1189
▁overw	-11.1191
▁destroyed	-11.1191
▁thumbs	-11.1192
▁logical	-11.1192
▁Ko	-11.1195
gle	-11.1204
▁Hero	-11.1206
▁West	-11.1206
▁whoever	-11.1207
▁conc	-11.121
▁Lesl	-11.1223
Mr	-11.1224
tree	-11.1226
▁explosions	-11.1227
▁row	-11.1227
except	-11.123
▁Bull	-11.1238
▁offering	-11.1243
▁critical	-11.1254
▁patients	-11.1261
▁Dad	-11.1261
▁ears	-11.1262
▁listening	-11.127
▁listed	-11.128
▁IQ	-11.1296
▁similarly	-11.1306
▁cru	-11.1306
zer	-11.131
pol	-11.1311
Brien	-11.1319
▁thrills	-11.1323
▁Cry	-11.1328
▁Ang	-11.133
▁bombing	-11.1335
oney	-11.1337
▁AL	-11.1339
▁Jill	-11.1364
▁Try	-11.1368
▁CO	-11.1376
PS	-11.1377
Of	-11.1388
▁Girls	-11.1396
IE	-11.1397
far	-11.1399
▁individuals	-11.14
▁screenwriters	-11.14
▁movements	-11.14
▁reports	-11.1402
rts	-11.1403
▁completed	-11.1416
▁prov	-11.1419
▁checked	-11.1422
▁bullets	-11.1435
▁Angels	-11.1437
▁Low	-11.1457
▁bust	-11.1489
▁poke	-11.1489
▁terroriz	-11.1496
nching	-11.1502
▁idiots	-11.1506
▁sings	-11.1512
bin	-11.1515
▁revolution	-11.1517
▁Evans	-11.1527
▁infer	-11.1527
▁fly	-11.1529
▁tricks	-11.1542
▁pages	-11.1542
▁emb	-11.1542
▁Super	-11.1554
▁Deb	-11.1558
▁Tro	-11.1562
▁doll	-11.1565
igger	-11.1567
▁artists	-11.157
▁occurs	-11.1577
▁Christin	-11.158
llen	-11.1593
faced	-11.1617
▁fac	-11.1621
5)	-11.1627
▁Ron	-11.163
30	-11.164
river	-11.1655
▁Jun	-11.1663
evo	-11.1663
▁RE	-11.1675
▁fest	-11.1682
TH	-11.1687
▁dear	-11.1712
hat	-11.1719
▁Liv	-11.1726
aki	-11.1738
eyed	-11.1739
moving	-11.174
▁Opera	-11.1759
▁believ	-11.176
▁rev	-11.1762
éli	-11.1768
ada	-11.1785
▁divorce	-11.1797
▁$5	-11.1803
new	-11.181
VER	-11.181
unch	-11.1815
▁Gre	-11.1826
ency	-11.1856
apped	-11.1862
ural	-11.1906
▁cancel	-11.1912
lust	-11.1932
▁flu	-11.1948
▁thrill	-11.1958
▁Jeff	-11.1976
▁chang	-11.1984
orious	-11.1992
eu	-11.1998
0%	-11.2
▁sla	-11.2013
uke	-11.2019
▁spli	-11.2019
cher	-11.2038
90	-11.2039
▁reache	-11.2062
love	-11.2064
drama	-11.2067
▁angle	-11.2077
sea	-11.2078
▁prop	-11.209
add	-11.2093
rough	-11.2096
▁Masters	-11.2099
▁dislik	-11.2104
here	-11.2104
▁sur	-11.2122
self	-11.2124
zar	-11.2125
▁range	-11.2128
▁ironic	-11.2142
▁transfer	-11.2144
elieve	-11.2149
▁$2	-11.2152
trap	-11.2152
Rating	-11.2164
turned	-11.2166
▁method	-11.2194
▁cheat	-11.2205
ado	-11.2208
izations	-11.2217
Hey	-11.2235
▁severe	-11.2249
▁Nicol	-11.2252
▁fascinat	-11.2257
Second	-11.2261
producer	-11.2262
normal	-11.2262
From	-11.2262
father	-11.2262
Like	-11.2262
writing	-11.2262
obvious	-11.2262
▁Francis	-11.2263
because	-11.2263
Death	-11.2264
black	-11.2265
forward	-11.2266
scary	-11.2266
▁receive	-11.2267
50	-11.2269
▁depict	-11.2269
Most	-11.2272
Who	-11.2272
▁interrupt	-11.2272
▁rush	-11.2275
▁Cinema	-11.2278
More	-11.2278
▁absen	-11.2278
▁(200	-11.2281
▁frequent	-11.2282
despi	-11.2288
▁generate	-11.229
▁Twi	-11.229
▁meander	-11.229
▁invite	-11.2291
Did	-11.2291
▁inspire	-11.2292
▁scratch	-11.2296
lander	-11.2304
▁narrat	-11.2307
THER	-11.2308
▁Under	-11.2309
▁Turn	-11.2309
▁environment	-11.2315
▁Terr	-11.2317
▁select	-11.2318
▁harm	-11.2319
▁$1	-11.232
hroughout	-11.2321
▁Eva	-11.2321
▁pun	-11.2321
▁plod	-11.2322
▁REAL	-11.2322
ö	-11.2322
▁Express	-11.2322
▁Hercules	-11.2322
▁coffee	-11.2322
▁rabbit	-11.2322
▁superficial	-11.2322
Caligula	-11.2322
Dracula	-11.2322
Professor	-11.2322
Regardless	-11.2322
▁1995	-11.2322
▁Burns	-11.2322
▁Camera	-11.2322
▁Cushing	-11.2322
▁Dorsey	-11.2322
▁Estevez	-11.2322
▁Frederick	-11.2322
▁Freeman	-11.2322
▁Gabriel	-11.2322
▁Hoffman	-11.2322
▁Hollow	-11.2322
▁Krupp	-11.2322
▁Lopez	-11.2322
▁Moscow	-11.2322
▁Nielson	-11.2322
▁PLEASE	-11.2322
▁Pleasance	-11.2322
▁Russell	-11.2322
▁Seymour	-11.2322
▁Snipes	-11.2322
▁Spike	-11.2322
▁Spock	-11.2322
▁Stewart	-11.2322
▁Summer	-11.2322
▁Sutherland	-11.2322
▁WRONG	-11.2322
▁access	-11.2322
▁benefit	-11.2322
▁bumbling	-11.2322
▁community	-11.2322
▁conduct	-11.2322
▁convoluted	-11.2322
▁dynamic	-11.2322
▁elaborate	-11.2322
▁excruciating	-11.2322
▁expensive	-11.2322
▁float	-11.2322
▁futuristic	-11.2322
▁gimmick	-11.2322
▁glaring	-11.2322
▁increase	-11.2322
▁increasing	-11.2322
▁injury	-11.2322
▁juvenile	-11.2322
▁lackluster	-11.2322
▁landscape	-11.2322
▁memories	-11.2322
▁mundane	-11.2322
▁newspaper	-11.2322
▁obscure	-11.2322
▁persuade	-11.2322
▁principle	-11.2322
▁rampage	-11.2322
▁relentless	-11.2322
▁restaurant	-11.2322
▁rival	-11.2322
▁scheme	-11.2322
▁substantial	-11.2322
▁traffic	-11.2322
▁unfair	-11.2322
▁valuable	-11.2322
▁venture	-11.2322
▁wrestling	-11.2322
Pacific	-11.2322
▁Cheech	-11.2322
▁Foster	-11.2322
▁Morrow	-11.2322
▁Ralph	-11.2322
▁Weapon	-11.2322
▁abomination	-11.2322
▁educate	-11.2322
▁essence	-11.2322
▁gambl	-11.2322
▁identify	-11.2322
▁leather	-11.2322
▁minimum	-11.2322
▁warehouse	-11.2322
▁/>3/10	-11.2322
▁Comebacks	-11.2322
▁Curry	-11.2322
▁Cylon	-11.2322
▁Hammer	-11.2322
▁convert	-11.2322
▁flesh	-11.2322
▁march	-11.2322
▁nominated	-11.2322
▁Blake	-11.2322
▁Dream	-11.2322
▁Cannon	-11.2322
▁Depp	-11.2322
▁Year	-11.2322
▁afternoon	-11.2322
▁recycl	-11.2322
▁bleak	-11.2322
▁tickets	-11.2322
▁Miller	-11.2322
aesthetic	-11.2322
▁DID	-11.2322
▁simplistic	-11.2322
-13	-11.2322
▁resort	-11.2322
Meanwhile	-11.2322
▁acquir	-11.2322
▁Ethan	-11.2322
▁statue	-11.2322
▁weather	-11.2322
▁coincidence	-11.2322
▁crisis	-11.2322
▁fulfill	-11.2322
▁shoddy	-11.2322
▁sickening	-11.2322
▁Hawk	-11.2322
▁retro	-11.2322
▁distribution	-11.2323
▁School	-11.2323
▁Darwin	-11.2323
▁trek	-11.2323
imaginative	-11.2323
▁health	-11.2323
▁nightclub	-11.2323
▁welcome	-11.2323
▁chunk	-11.2323
▁exchange	-11.2323
▁cultural	-11.2323
▁Wolf	-11.2323
▁kidnapping	-11.2323
▁construction	-11.2323
▁conservative	-11.2323
▁trend	-11.2323
Daniel	-11.2323
▁rapid	-11.2323
▁chill	-11.2323
▁stunk	-11.2323
▁saga	-11.2323
▁breed	-11.2323
▁Thankfully	-11.2324
▁daily	-11.2324
▁resist	-11.2324
▁River	-11.2324
▁WWE	-11.2324
▁relation	-11.2324
▁loving	-11.2324
▁sensational	-11.2324
▁spread	-11.2324
▁Linne	-11.2324
▁Rabbit	-11.2324
▁occurred	-11.2324
▁Ivan	-11.2324
▁WAS	-11.2324
▁Price	-11.2324
▁mobster	-11.2324
Cherry	-11.2324
▁poison	-11.2324
▁echo	-11.2324
▁Army	-11.2325
▁understood	-11.2325
▁limp	-11.2325
▁pursuit	-11.2325
▁Berg	-11.2325
▁label	-11.2325
▁85	-11.2325
▁Margo	-11.2326
▁intentionally	-11.2326
▁eight	-11.2326
▁Ranger	-11.2326
hief	-11.2326
▁trade	-11.2326
▁Silver	-11.2326
▁Kidman	-11.2327
▁pink	-11.2327
▁duty	-11.2327
▁Macbeth	-11.2327
ritz	-11.2327
▁indication	-11.2327
▁unlikeable	-11.2328
▁Marx	-11.2328
▁Port	-11.2328
▁innovative	-11.2328
▁chair	-11.2328
▁sheriff	-11.2329
▁Willis	-11.2329
▁Trent	-11.2329
****************	-11.2329
Susan	-11.2329
▁Carter	-11.2329
▁Eater	-11.233
▁Shat	-11.233
▁nomination	-11.233
▁flight	-11.2331
▁jealousy	-11.2331
▁spout	-11.2331
▁friendship	-11.2331
▁fea	-11.2332
▁Long	-11.2332
▁constructed	-11.2333
▁coach	-11.2333
▁tail	-11.2333
▁loop	-11.2334
▁assure	-11.2334
▁reward	-11.2334
▁beast	-11.2335
▁Hopper	-11.2335
▁Major	-11.2335
▁Sleep	-11.2335
▁Nick	-11.2335
▁Four	-11.2336
▁DON	-11.2337
▁sung	-11.2337
tual	-11.2338
▁Nice	-11.2338
▁lend	-11.2339
▁childish	-11.2339
Underdog	-11.2341
▁fictional	-11.2341
Direct	-11.2341
▁slightest	-11.2342
▁strand	-11.2342
▁Terror	-11.2343
▁sane	-11.2343
▁Crosby	-11.2344
▁Laura	-11.2344
▁Sometimes	-11.2344
▁desired	-11.2346
▁distracted	-11.2346
▁Kim	-11.2346
graph	-11.2348
▁24	-11.2348
▁Mind	-11.2349
▁Dear	-11.2351
▁101	-11.2352
▁arrested	-11.2352
▁AWFUL	-11.2352
▁ambu	-11.2353
▁hopeless	-11.2355
▁debut	-11.2355
▁egg	-11.2356
▁Five	-11.2358
▁*1/2	-11.2361
▁cheek	-11.2361
▁Hi	-11.2361
ody	-11.2362
▁crook	-11.2362
ement	-11.2364
▁recommendation	-11.2369
▁SPOILERS	-11.2369
▁depicted	-11.2372
▁Tell	-11.2372
▁cheated	-11.2372
▁Blood	-11.2373
▁Ross	-11.2374
nspector	-11.2374
▁cake	-11.2375
▁Lil	-11.2376
ddy	-11.2386
▁lowest	-11.2388
▁Death	-11.239
really	-11.2391
▁Gore	-11.2399
▁parties	-11.2403
▁repeatedly	-11.2407
▁screwed	-11.2412
▁faster	-11.2412
IR	-11.2416
▁survived	-11.2418
gate	-11.2418
▁hip	-11.2426
▁farce	-11.2427
▁Finally	-11.2428
iz	-11.243
▁closer	-11.2433
miss	-11.2434
Tom	-11.2439
▁:)	-11.2441
▁relie	-11.2445
Patsy	-11.2448
▁UN	-11.2448
▁disappeared	-11.2451
▁Kent	-11.2453
▁pushed	-11.2454
esident	-11.2458
▁darker	-11.2458
▁Lily	-11.2459
holic	-11.246
rect	-11.2465
▁pale	-11.2467
▁grate	-11.2471
▁Edit	-11.2478
▁bud	-11.248
▁prey	-11.248
▁RI	-11.2482
▁hilariously	-11.2489
ager	-11.2497
▁refuse	-11.2501
▁performers	-11.2507
▁Cop	-11.2515
▁attic	-11.2516
▁cl	-11.2516
▁spirited	-11.2519
▁GI	-11.2525
▁sold	-11.2527
▁stra	-11.2537
mid	-11.2541
▁Net	-11.2543
▁historically	-11.2545
▁skim	-11.2552
lving	-11.2554
rum	-11.2555
stood	-11.2559
▁OR	-11.2574
▁DE	-11.2577
▁shines	-11.2583
▁kicked	-11.2593
▁Arc	-11.2594
▁warm	-11.2603
▁twisted	-11.2607
ARE	-11.2608
ndy	-11.2626
▁meat	-11.2635
▁Hall	-11.2642
rising	-11.2649
BS	-11.2651
▁AT	-11.266
olph	-11.2661
▁stealing	-11.2661
▁Nes	-11.2694
8)	-11.2699
▁investigat	-11.2702
▁Hy	-11.2709
▁bol	-11.2716
▁fighter	-11.272
▁recreat	-11.2733
Quit	-11.2739
▁demonstrate	-11.2747
hugger	-11.2769
gged	-11.2769
alf	-11.2773
erial	-11.2825
▁ME	-11.2825
liver	-11.2831
EL	-11.2842
Denis	-11.2851
astic	-11.2869
abo	-11.2875
▁Par	-11.2882
▁mal	-11.2892
▁programme	-11.2904
▁rais	-11.2907
uel	-11.2911
uddy	-11.2921
DE	-11.2929
odd	-11.2931
▁dragg	-11.2946
▁fad	-11.295
▁combin	-11.2961
▁mature	-11.2984
▁Com	-11.3001
▁dam	-11.3017
▁sap	-11.302
ALL	-11.3037
east	-11.3091
paced	-11.3129
▁believer	-11.3166
▁cow	-11.3191
▁revolutionar	-11.3198
▁Judg	-11.3234
▁Qu	-11.3249
formed	-11.3255
El	-11.3263
verly	-11.3274
▁purchase	-11.328
▁Mic	-11.3303
serving	-11.3305
erfect	-11.3311
▁mil	-11.332
▁lab	-11.3323
ubbed	-11.3347
anne	-11.3349
jun	-11.3387
▁Ram	-11.3391
▁dope	-11.3397
▁gag	-11.3441
cour	-11.3456
illa	-11.3456
▁error	-11.3469
▁technique	-11.347
gling	-11.348
▁buck	-11.3482
▁parent	-11.3484
▁passe	-11.3485
NG	-11.349
▁folk	-11.3493
▁tear	-11.3495
ctic	-11.3496
▁improv	-11.3516
corporate	-11.352
▁admir	-11.3527
▁grab	-11.3535
▁shine	-11.3538
▁Wal	-11.354
▁hu	-11.3551
hand	-11.3565
breaking	-11.3585
▁wood	-11.3585
Conan	-11.3586
▁refer	-11.3602
Sav	-11.3612
▁Fan	-11.3617
national	-11.3619
TED	-11.3622
ulate	-11.3629
▁TH	-11.3639
▁rap	-11.3649
▁boom	-11.3656
ography	-11.3669
▁bob	-11.3672
▁Wha	-11.3679
▁devastat	-11.3681
▁surround	-11.3684
▁tradition	-11.3685
Mame	-11.3687
▁bleed	-11.3687
Finally	-11.3687
entertain	-11.3688
Sorry	-11.3689
mill	-11.3689
grown	-11.3689
Honestly	-11.3689
strict	-11.3689
OUT	-11.369
Halloween	-11.369
familiar	-11.369
Peter	-11.3691
shock	-11.3691
white	-11.3691
power	-11.3691
woman	-11.3691
important	-11.3692
Alien	-11.3693
joke	-11.3693
loud	-11.3697
▁corn	-11.3697
Dark	-11.3697
mato	-11.3698
wave	-11.37
Avoid	-11.3701
phone	-11.3701
Night	-11.3703
Plan	-11.3704
human	-11.3706
cool	-11.3711
Hell	-11.3714
IVE	-11.3718
▁compet	-11.3721
▁cel	-11.3723
▁philosoph	-11.3725
▁dread	-11.3727
rock	-11.3729
▁engine	-11.3738
▁enthusiast	-11.374
▁Euro	-11.3741
▁Pete	-11.3742
▁sketch	-11.3742
▁bang	-11.3747
▁reflect	-11.3747
▁homosexual	-11.3748
▁melodrama	-11.375
▁slash	-11.375
▁birth	-11.375
eyond	-11.375
convict	-11.3751
▁appro	-11.3751
▁counsel	-11.3751
Turkey	-11.3751
motivated	-11.3751
numbingly	-11.3751
onymous	-11.3751
▁1999	-11.3751
▁Austin	-11.3751
▁Broadway	-11.3751
▁Casbah	-11.3751
▁Doctor	-11.3751
▁Entertainment	-11.3751
▁FILM	-11.3751
▁Flynn	-11.3751
▁Furthermore	-11.3751
▁GOOD	-11.3751
▁Galactica	-11.3751
▁Gossett	-11.3751
▁Kilmer	-11.3751
▁Kristin	-11.3751
▁Leigh	-11.3751
▁Machine	-11.3751
▁Natural	-11.3751
▁Original	-11.3751
▁Pinza	-11.3751
▁Punish	-11.3751
▁Quigley	-11.3751
▁Rodriguez	-11.3751
▁Rommel	-11.3751
▁Spanish	-11.3751
▁Warhol	-11.3751
▁Warriors	-11.3751
▁accompani	-11.3751
▁activity	-11.3751
▁advertise	-11.3751
▁album	-11.3751
▁bewilder	-11.3751
▁blunt	-11.3751
▁bounty	-11.3751
▁cemetery	-11.3751
▁coherent	-11.3751
▁companies	-11.3751
▁compromise	-11.3751
▁consequences	-11.3751
▁continual	-11.3751
▁contrary	-11.3751
▁cynical	-11.3751
▁determine	-11.3751
▁dialouge	-11.3751
▁diversity	-11.3751
▁financial	-11.3751
▁french	-11.3751
▁gifted	-11.3751
▁grenade	-11.3751
▁guitar	-11.3751
▁gymnastics	-11.3751
▁horrified	-11.3751
▁horrifying	-11.3751
▁inconsistencies	-11.3751
▁marginal	-11.3751
▁menacing	-11.3751
▁mistress	-11.3751
▁museum	-11.3751
▁neglect	-11.3751
▁nostalgia	-11.3751
▁orchestra	-11.3751
▁outstanding	-11.3751
▁pearls	-11.3751
▁peddler	-11.3751
▁pedestrian	-11.3751
▁prank	-11.3751
▁prejudice	-11.3751
▁qualify	-11.3751
▁rabid	-11.3751
▁recruit	-11.3751
▁reluctant	-11.3751
▁revelation	-11.3751
▁skull	-11.3751
▁stellar	-11.3751
▁telephone	-11.3751
▁thieves	-11.3751
▁transition	-11.3751
▁unexplained	-11.3751
▁unrelated	-11.3751
▁unsuspecting	-11.3751
▁wretched	-11.3751
▁Arthur	-11.3751
▁Britain	-11.3751
▁Karloff	-11.3751
▁Seuss	-11.3751
▁Snider	-11.3751
▁WATCH	-11.3751
▁Wonder	-11.3751
▁ambition	-11.3751
▁anticipation	-11.3751
▁attached	-11.3751
▁babies	-11.3751
▁blink	-11.3751
▁clumsi	-11.3751
▁cocaine	-11.3751
▁conspirac	-11.3751
▁drab	-11.3751
▁hackneyed	-11.3751
▁janitor	-11.3751
▁pattern	-11.3751
▁qualifie	-11.3751
▁swamp	-11.3751
▁Jamie	-11.3751
▁Laurie	-11.3751
▁Midler	-11.3751
▁Mormon	-11.3751
▁Sayles	-11.3751
▁Sonja	-11.3751
▁demise	-11.3751
▁embrace	-11.3751
▁patience	-11.3751
intensity	-11.3751
▁Craz	-11.3751
▁garden	-11.3751
▁miserable	-11.3751
▁rational	-11.3751
▁Chili	-11.3751
▁Harvey	-11.3751
▁TCM	-11.3751
▁atrocit	-11.3751
Certain	-11.3751
▁inappropriate	-11.3751
▁indict	-11.3751
▁loyal	-11.3751
▁troop	-11.3751
▁announce	-11.3751
▁employees	-11.3751
▁Martha	-11.3751
▁Zane	-11.3751
▁pulp	-11.3751
▁reign	-11.3751
▁Katie	-11.3751
▁mercy	-11.3751
▁Pink	-11.3751
▁smell	-11.3751
▁eliminate	-11.3751
▁baffl	-11.3751
▁ease	-11.3751
▁Fortunately	-11.3751
▁Clooney	-11.3751
▁offense	-11.3751
▁Casper	-11.3751
▁strangl	-11.3751
▁predator	-11.3751
Battle	-11.3751
▁Emily	-11.3751
▁maintain	-11.3751
▁plodding	-11.3751
▁Classic	-11.3751
▁lapse	-11.3751
▁jewel	-11.3751
▁styl	-11.3751
▁cliff	-11.3751
▁Monk	-11.3751
▁titillat	-11.3751
▁Bush	-11.3751
▁1940	-11.3751
▁miniseries	-11.3751
▁/>1/10	-11.3751
fetched	-11.3751
▁defeat	-11.3751
inducing	-11.3751
▁Addison	-11.3751
▁miniature	-11.3751
Nightmare	-11.3752
▁survivors	-11.3752
incomprehensible	-11.3752
▁Tingle	-11.3752
▁Canada	-11.3752
▁excessive	-11.3752
▁Bernard	-11.3752
▁Hannibal	-11.3752
▁snowball	-11.3752
▁Minu	-11.3752
▁click	-11.3752
▁Aeon	-11.3752
▁Adri	-11.3752
▁fanatic	-11.3752
▁countries	-11.3752
▁hurr	-11.3752
▁liking	-11.3753
▁Word	-11.3753
▁angst	-11.3753
▁captain	-11.3753
▁implausible	-11.3753
▁interaction	-11.3753
▁recognition	-11.3753
▁grind	-11.3753
▁China	-11.3753
▁thief	-11.3753
▁decline	-11.3753
▁nonexistent	-11.3753
▁examine	-11.3753
▁shaking	-11.3753
▁Bates	-11.3753
utilize	-11.3753
▁poverty	-11.3753
▁organiz	-11.3753
▁bitten	-11.3754
▁undermine	-11.3754
▁freedom	-11.3754
▁harmless	-11.3754
?!?!	-11.3754
▁pimp	-11.3754
▁Penn	-11.3754
▁Raj	-11.3754
▁Muppet	-11.3754
▁Apes	-11.3754
▁Occasionally	-11.3754
▁incest	-11.3754
▁sadistic	-11.3755
▁dung	-11.3755
▁objective	-11.3755
▁resemblance	-11.3755
▁loath	-11.3755
▁Doug	-11.3755
▁Warner	-11.3755
▁stair	-11.3755
gritty	-11.3755
▁claw	-11.3755
▁Howell	-11.3755
▁menace	-11.3755
▁cram	-11.3756
▁jumb	-11.3756
▁Mild	-11.3756
▁stack	-11.3757
▁ballet	-11.3757
▁cure	-11.3757
▁Unlike	-11.3757
▁distan	-11.3758
▁trial	-11.3758
▁artsy	-11.3758
▁Corman	-11.3758
▁Nav	-11.3758
▁Camp	-11.3758
▁editor	-11.3758
▁applaud	-11.3758
▁bann	-11.3758
▁clueless	-11.3759
▁roman	-11.3759
▁environmental	-11.3759
▁cough	-11.3759
will	-11.3759
▁eaten	-11.376
NO	-11.376
▁payoff	-11.376
▁laser	-11.376
▁formulaic	-11.3761
▁Minne	-11.3761
▁sensitiv	-11.3761
▁3000	-11.3761
▁brow	-11.3761
▁pants	-11.3761
▁Drew	-11.3762
▁Tuck	-11.3762
▁punk	-11.3762
▁bearable	-11.3762
▁narrator	-11.3763
▁drone	-11.3764
▁pathetically	-11.3765
▁Angeles	-11.3765
▁distinguish	-11.3766
▁Tuscan	-11.3766
▁Usually	-11.3766
▁Third	-11.3766
▁Douglas	-11.3766
▁futil	-11.3767
▁masses	-11.3767
lbert	-11.3768
▁questionable	-11.3768
▁stoned	-11.3769
▁horny	-11.3769
▁WW	-11.3769
▁tacky	-11.3769
▁14	-11.377
▁cup	-11.377
▁shameless	-11.3771
urse	-11.3771
▁Stark	-11.3771
▁Close	-11.3772
▁significant	-11.3772
▁Williamson	-11.3772
▁Baron	-11.3772
▁overrated	-11.3773
▁composer	-11.3774
▁Down	-11.3775
▁Nope	-11.3775
▁Book	-11.3776
▁Boston	-11.3776
▁Alive	-11.3776
▁everyday	-11.3777
▁philosophy	-11.3777
▁Almost	-11.3777
▁Skeleto	-11.3777
ilence	-11.3779
▁stretches	-11.378
▁Bug	-11.378
▁Vera	-11.378
▁Roll	-11.3781
▁gather	-11.3781
▁happily	-11.3782
▁darkness	-11.3782
▁spoken	-11.3782
▁tall	-11.3783
▁possessed	-11.3786
▁Bottom	-11.3786
▁hysterically	-11.3786
▁enjoyment	-11.3788
▁invited	-11.3788
▁severed	-11.3788
▁robbery	-11.3789
▁carefully	-11.379
▁Dian	-11.3792
▁bio	-11.3792
▁engaged	-11.3793
▁icon	-11.3793
CK	-11.3795
▁=	-11.3796
▁Friday	-11.3796
▁tense	-11.3797
▁Jan	-11.3798
▁plea	-11.3799
1974	-11.38
sses	-11.38
tellit	-11.3801
force	-11.3804
▁Ok	-11.3804
▁alternative	-11.3805
▁Scream	-11.3808
esque	-11.3808
▁lumber	-11.3809
▁interrupted	-11.3809
▁busy	-11.3811
▁Jess	-11.3811
▁Gable	-11.3813
atory	-11.3815
▁lifetime	-11.3816
▁linked	-11.3816
▁cameraman	-11.3819
▁bleeding	-11.382
▁Read	-11.382
▁active	-11.3821
▁Dude	-11.3822
▁Cole	-11.3822
▁Sun	-11.3823
uthenticity	-11.3826
▁cab	-11.3826
▁gray	-11.3827
headed	-11.3827
▁beware	-11.3827
▁cue	-11.3828
▁Mame	-11.3828
▁cheating	-11.3831
▁meandering	-11.3831
ulation	-11.3834
▁removed	-11.3837
▁stupidest	-11.3837
▁arc	-11.3838
deli	-11.3841
Menace	-11.3852
▁Made	-11.3853
maybe	-11.3853
▁promised	-11.3857
▁correctly	-11.3862
▁Hardy	-11.3862
▁wandering	-11.3863
MER	-11.3864
justify	-11.3869
tional	-11.3871
Pep	-11.3872
▁unbelievabl	-11.3873
▁armor	-11.3876
▁burned	-11.3878
▁Anna	-11.388
▁sew	-11.388
[	-11.3889
▁Beach	-11.3889
▁Hart	-11.3892
▁tolerabl	-11.3902
ility	-11.3902
▁park	-11.3909
▁existed	-11.3914
▁paced	-11.3921
▁panic	-11.3926
▁mysteriously	-11.3926
▁Fat	-11.3928
▁maid	-11.3935
HO	-11.3937
▁Daly	-11.394
▁/>2)	-11.394
▁loaded	-11.3947
▁heap	-11.3953
▁spy	-11.3955
▁mill	-11.3955
goer	-11.3963
▁/>****	-11.397
▁Coole	-11.3974
▁Kee	-11.3977
▁visually	-11.3982
▁recorded	-11.3986
oir	-11.4003
Camill	-11.4006
▁exceptional	-11.4014
ological	-11.4014
torian	-11.4027
mine	-11.4048
aunt	-11.4049
▁talky	-11.406
REE	-11.4078
uper	-11.408
▁endure	-11.4081
▁quot	-11.4088
mash	-11.4117
▁upper	-11.4148
posed	-11.4153
UNT	-11.4161
▁paus	-11.4162
yck	-11.4166
5/10	-11.4169
BO	-11.418
▁bath	-11.4186
pot	-11.4204
capita	-11.4249
Mat	-11.4275
ORE	-11.4283
EST	-11.4324
▁parad	-11.4354
wan	-11.4377
▁Marshal	-11.4401
▁pushe	-11.4417
▁rag	-11.444
fication	-11.4445
▁Ride	-11.4447
▁crosse	-11.4449
aithful	-11.4494
▁recite	-11.4498
▁inevitabl	-11.4573
▁gro	-11.4577
40	-11.4602
▁scor	-11.4615
lip	-11.4626
wen	-11.4641
▁cor	-11.4656
▁architect	-11.466
Nobody	-11.4671
iden	-11.4689
▁Blo	-11.4692
uperhero	-11.4698
Connor	-11.471
ANT	-11.4723
apocalyp	-11.4729
▁Sid	-11.4742
▁Home	-11.4743
▁Mara	-11.4754
▁Heat	-11.4759
ami	-11.4759
▁Carme	-11.4764
▁True	-11.4772
▁popp	-11.4777
nded	-11.4784
Vinc	-11.4788
▁rage	-11.4795
JO	-11.4813
▁refus	-11.4814
▁Clo	-11.4818
▁cla	-11.482
▁admitted	-11.4821
▁fur	-11.4856
▁demonstrat	-11.4867
mong	-11.4886
▁fem	-11.4893
▁sue	-11.4899
▁pose	-11.4903
▁San	-11.4904
nails	-11.4905
MA	-11.4906
AVE	-11.4918
ONE	-11.4934
lumber	-11.4946
▁tri	-11.495
did	-11.4953
lov	-11.4967
▁Vic	-11.4968
▁locale	-11.4968
▁wan	-11.4984
thia	-11.4985
DA	-11.5002
▁blur	-11.5042
▁mud	-11.5055
▁Walk	-11.5063
▁cho	-11.5063
astern	-11.5067
▁incorporat	-11.5075
ja	-11.5083
▁arrive	-11.5108
▁ear	-11.5118
▁scr	-11.5118
eau	-11.5122
▁Six	-11.5126
▁patient	-11.5133
▁breast	-11.5138
!")	-11.5146
▁boo	-11.5146
lty	-11.5154
rbi	-11.5184
Any	-11.5225
▁contribut	-11.5251
▁refuge	-11.527
?!)	-11.5272
meaning	-11.5278
efinitely	-11.5286
▁slip	-11.5297
weight	-11.5299
ula	-11.5303
▁disappoint	-11.5304
▁annoy	-11.5306
makers	-11.5309
greed	-11.5312
mind	-11.5315
worth	-11.5333
▁auto	-11.5343
gene	-11.5345
▁repl	-11.5347
▁circ	-11.5351
LOT	-11.5353
quat	-11.5354
post	-11.5356
Scream	-11.5356
Thank	-11.5356
Seriously	-11.5356
Yeah	-11.5357
zombie	-11.5357
unfortunately	-11.5357
please	-11.5357
particularly	-11.5357
mentioned	-11.5358
walk	-11.5358
dream	-11.5358
actually	-11.5358
Dude	-11.5359
Miss	-11.5359
space	-11.536
smart	-11.536
Glen	-11.536
Paul	-11.536
guard	-11.5361
Good	-11.5363
decent	-11.5364
reality	-11.5364
print	-11.5366
without	-11.5367
ither	-11.5368
shoot	-11.5369
master	-11.5369
▁dump	-11.537
SPOILERS	-11.5371
▁dri	-11.5371
found	-11.5375
shine	-11.5377
▁hysterical	-11.5377
book	-11.5377
▁definite	-11.5379
▁instant	-11.538
▁desire	-11.5386
cake	-11.5388
lead	-11.5394
Other	-11.5395
▁fiancé	-11.5395
▁crow	-11.5396
▁origin	-11.5396
flicted	-11.5396
▁spoke	-11.5398
ndition	-11.5407
▁south	-11.5409
▁Charl	-11.541
▁scienti	-11.5411
▁sentiment	-11.5411
▁epi	-11.5412
uppet	-11.5412
▁corrupt	-11.5413
▁sect	-11.5414
▁thru	-11.5414
▁quest	-11.5414
▁alcohol	-11.5414
▁Burt	-11.5414
▁gig	-11.5415
▁possibilit	-11.5415
▁assign	-11.5415
▁contest	-11.5416
▁Count	-11.5416
▁differ	-11.5416
▁specific	-11.5416
▁Philip	-11.5416
eval	-11.5417
▁gentle	-11.5417
www	-11.5417
▁micro	-11.5417
▁favour	-11.5417
▁ghoul	-11.5417
▁'80	-11.5418
▁Englund	-11.5418
▁Hasselhoff	-11.5418
▁Jefferson	-11.5418
▁Python	-11.5418
▁Selznick	-11.5418
▁Sinatra	-11.5418
▁endearing	-11.5418
▁homophob	-11.5418
▁resources	-11.5418
Absolute	-11.5418
Brazil	-11.5418
Disappointing	-11.5418
Emmanuelle	-11.5418
Ultimately	-11.5418
alyzed	-11.5418
climactic	-11.5418
engeance	-11.5418
mmortal	-11.5418
mpathy	-11.5418
▁1962	-11.5418
▁1998	-11.5418
▁2006	-11.5418
▁BLOOD	-11.5418
▁CRAP	-11.5418
▁Campbell	-11.5418
▁Carradine	-11.5418
▁Clearly	-11.5418
▁Dresden	-11.5418
▁Egyptian	-11.5418
▁Encounter	-11.5418
▁Festival	-11.5418
▁Follow	-11.5418
▁Gibson	-11.5418
▁Haggis	-11.5418
▁Henriksen	-11.5418
▁Kennedy	-11.5418
▁MAGOO	-11.5418
▁Mitchell	-11.5418
▁Mumba	-11.5418
▁Mwanza	-11.5418
▁Raquel	-11.5418
▁Ripley	-11.5418
▁Shanghai	-11.5418
▁Shining	-11.5418
▁Trancer	-11.5418
▁Vaughn	-11.5418
▁Virginia	-11.5418
▁Werewolf	-11.5418
▁antagonist	-11.5418
▁applie	-11.5418
▁appreciati	-11.5418
▁artificial	-11.5418
▁assassin	-11.5418
▁astonishing	-11.5418
▁attribute	-11.5418
▁bargain	-11.5418
▁casual	-11.5418
▁cheerleader	-11.5418
▁choreographed	-11.5418
▁communist	-11.5418
▁companion	-11.5418
▁competition	-11.5418
▁constitute	-11.5418
▁contemporar	-11.5418
▁contradict	-11.5418
▁creativity	-11.5418
▁cyborg	-11.5418
▁depression	-11.5418
▁discount	-11.5418
▁elevator	-11.5418
▁eternal	-11.5418
▁evolve	-11.5418
▁fabulous	-11.5418
▁feminist	-11.5418
▁fiasco	-11.5418
▁fifties	-11.5418
▁fifty	-11.5418
▁filter	-11.5418
▁ghetto	-11.5418
▁gifts	-11.5418
▁glory	-11.5418
▁grudge	-11.5418
▁ignorant	-11.5418
▁illusion	-11.5418
▁immense	-11.5418
▁jackass	-11.5418
▁jarring	-11.5418
▁kindergarten	-11.5418
▁mannequin	-11.5418
▁nervous	-11.5418
▁paraphrase	-11.5418
▁participat	-11.5418
▁paycheck	-11.5418
▁phony	-11.5418
▁predecessor	-11.5418
▁prequel	-11.5418
▁primitive	-11.5418
▁puzzle	-11.5418
▁razor	-11.5418
▁ridicule	-11.5418
▁ruthless	-11.5418
▁smirk	-11.5418
▁smooth	-11.5418
▁spectator	-11.5418
▁stagger	-11.5418
▁supply	-11.5418
▁surgeon	-11.5418
▁suspicious	-11.5418
▁syphilis	-11.5418
▁temple	-11.5418
▁tepid	-11.5418
▁terrifying	-11.5418
▁tissue	-11.5418
▁trademark	-11.5418
▁turgid	-11.5418
▁undeniabl	-11.5418
▁unexciting	-11.5418
▁unsuccessful	-11.5418
▁vapid	-11.5418
▁woeful	-11.5418
▁zoom	-11.5418
▁Boleyn	-11.5418
▁Bronson	-11.5418
▁Children	-11.5418
▁Craven	-11.5418
▁Dirty	-11.5418
▁Eastenders	-11.5418
▁Gothic	-11.5418
▁Hamilton	-11.5418
▁Harvest	-11.5418
▁Kinski	-11.5418
▁Lucas	-11.5418
▁WHAT	-11.5418
▁agonizing	-11.5418
▁bimbo	-11.5418
▁buzz	-11.5418
▁conquer	-11.5418
▁fifteen	-11.5418
▁fodder	-11.5418
▁grief	-11.5418
▁meteorite	-11.5418
▁relax	-11.5418
▁slick	-11.5418
▁tattoo	-11.5418
▁translation	-11.5418
▁underwear	-11.5418
Emperor	-11.5418
Interesting	-11.5418
▁Consider	-11.5418
▁Dalton	-11.5418
▁Logan	-11.5418
▁Silent	-11.5418
▁Weaver	-11.5418
▁adorable	-11.5418
▁clown	-11.5418
▁despicable	-11.5418
▁drown	-11.5418
▁framing	-11.5418
▁graduate	-11.5418
▁sleeve	-11.5418
▁Eagle	-11.5418
▁cheque	-11.5418
▁edgy	-11.5418
▁resume	-11.5418
▁snooze	-11.5418
Escape	-11.5418
IGH	-11.5418
▁Amaz	-11.5418
▁Awful	-11.5418
▁Shaw	-11.5418
▁deleted	-11.5418
▁jock	-11.5418
Dhawan	-11.5418
▁Kahn	-11.5418
▁Stalin	-11.5418
▁Tomek	-11.5418
▁colleague	-11.5418
▁disease	-11.5418
▁inhabitants	-11.5418
▁loony	-11.5418
▁perceiv	-11.5418
▁untalented	-11.5418
▁classmates	-11.5418
ITY	-11.5418
▁Storm	-11.5418
▁pleasant	-11.5418
▁region	-11.5418
▁Snake	-11.5418
▁gloss	-11.5418
▁Altman	-11.5418
▁erupt	-11.5418
▁inherent	-11.5418
▁irony	-11.5418
▁volu	-11.5418
SOME	-11.5418
▁boast	-11.5418
▁eyebrow	-11.5418
▁kar	-11.5418
▁portal	-11.5418
▁Stamp	-11.5418
▁shift	-11.5418
▁peep	-11.5418
▁Creep	-11.5418
▁Left	-11.5418
▁asylum	-11.5418
▁wrestle	-11.5418
▁miracle	-11.5418
▁psychiatrist	-11.5418
▁History	-11.5418
▁bubbl	-11.5418
▁overacted	-11.5418
▁vital	-11.5418
▁wicked	-11.5418
▁Shoot	-11.5418
▁bloodthirsty	-11.5418
▁doomed	-11.5418
▁gear	-11.5418
▁protest	-11.5418
▁Court	-11.5418
▁Flux	-11.5418
▁Step	-11.5418
▁alleged	-11.5418
▁forehead	-11.5418
▁Madsen	-11.5418
▁inherit	-11.5418
▁Teri	-11.5418
▁hiding	-11.5418
▁timing	-11.5418
▁masturbation	-11.5418
▁Hulk	-11.5418
▁calm	-11.5418
▁Plot	-11.5418
BRA	-11.5418
▁Messing	-11.5418
▁agony	-11.5418
▁declar	-11.5418
▁Sylv	-11.5418
▁meteor	-11.5418
▁cutouts	-11.5418
▁manipulative	-11.5418
▁arrow	-11.5418
▁orphanage	-11.5418
▁pressure	-11.5418
▁grasp	-11.5418
▁dismal	-11.5418
poetic	-11.5418
▁plug	-11.5418
▁McGo	-11.5418
▁JU	-11.5418
▁chess	-11.5418
▁karate	-11.5418
▁anime	-11.5418
▁habit	-11.5419
▁Shatner	-11.5419
▁gripping	-11.5419
▁infected	-11.5419
▁linger	-11.5419
ELL	-11.5419
Eventually	-11.5419
▁Connell	-11.5419
▁macho	-11.5419
▁Whe	-11.5419
▁SciFi	-11.5419
▁eager	-11.5419
▁ourselves	-11.5419
▁Radu	-11.5419
ncidentally	-11.5419
ftermath	-11.5419
▁smash	-11.542
▁cancer	-11.542
▁ethic	-11.542
▁hammy	-11.542
▁punchline	-11.542
▁contestant	-11.542
Cheaters	-11.542
▁moviegoers	-11.542
▁crank	-11.542
▁Owen	-11.542
▁predictably	-11.542
▁package	-11.542
▁maze	-11.542
▁comfortable	-11.542
▁ninety	-11.5421
▁alcoholic	-11.5421
Octo	-11.5421
▁interior	-11.5421
▁geek	-11.5421
▁repulsive	-11.5421
perhaps	-11.5421
ACH	-11.5421
▁reek	-11.5421
▁inventive	-11.5421
▁Candy	-11.5422
▁insightful	-11.5422
▁Outside	-11.5422
▁missile	-11.5422
▁Bergman	-11.5422
▁Game	-11.5422
▁Luke	-11.5422
bonus	-11.5422
▁groan	-11.5422
▁wrapped	-11.5422
▁achievement	-11.5422
▁coast	-11.5422
▁Jeanne	-11.5422
▁Romero	-11.5423
▁Stay	-11.5423
▁vein	-11.5423
▁Burton	-11.5423
▁drill	-11.5424
▁Chaney	-11.5424
▁cub	-11.5424
▁TRANCERS	-11.5424
▁STUPID	-11.5424
▁shred	-11.5424
▁scout	-11.5424
ASS	-11.5424
▁Dawn	-11.5425
▁secretary	-11.5425
▁underrated	-11.5425
▁laid	-11.5425
▁couch	-11.5425
▁inexplicably	-11.5425
▁snowman	-11.5425
▁Jake	-11.5425
▁saddle	-11.5425
▁Wait	-11.5425
▁implie	-11.5426
▁artwork	-11.5426
▁flies	-11.5426
▁Iceland	-11.5426
▁Dialog	-11.5426
▁Code	-11.5426
▁Kong	-11.5426
▁duck	-11.5427
▁skits	-11.5427
▁Springer	-11.5427
entury	-11.5427
▁Somehow	-11.5427
righteous	-11.5427
▁adaption	-11.5427
▁pound	-11.5427
▁Witch	-11.5427
▁Serb	-11.5427
▁Play	-11.5427
Chaos	-11.5428
▁rattl	-11.5428
▁incidentally	-11.5429
▁/>3)	-11.5429
stein	-11.5429
▁Sinister	-11.5429
His	-11.5429
▁studi	-11.5429
▁chor	-11.5429
▁Face	-11.5429
▁inaccuracies	-11.5429
▁ponder	-11.5429
▁mumb	-11.543
fisted	-11.543
▁presentation	-11.543
assic	-11.543
▁Christianity	-11.5431
ifying	-11.5431
▁lair	-11.5431
▁Carry	-11.5431
▁consideration	-11.5431
▁Emma	-11.5432
fighter	-11.5432
▁Lai	-11.5432
▁crazed	-11.5432
▁Fire	-11.5432
▁minus	-11.5433
▁peers	-11.5433
END	-11.5433
▁Josh	-11.5433
▁scriptwriter	-11.5434
▁pipe	-11.5434
▁Fright	-11.5434
▁Donner	-11.5434
▁Slate	-11.5434
▁quirky	-11.5434
▁ranting	-11.5435
▁SHO	-11.5435
▁TIME	-11.5436
▁WHY	-11.5436
▁skeleton	-11.5436
▁worship	-11.5436
▁bouncing	-11.5436
▁eeri	-11.5437
▁Meet	-11.5438
▁launch	-11.5438
▁murderous	-11.544
▁bible	-11.544
affy	-11.5441
▁manipulated	-11.5441
▁35	-11.5441
▁hyper	-11.5442
▁Jackie	-11.5442
▁Alas	-11.5443
▁relevant	-11.5443
▁Fight	-11.5443
1.5	-11.5444
ivil	-11.5444
▁crush	-11.5445
wick	-11.5445
pain	-11.5445
▁degrad	-11.5446
▁mysteri	-11.5447
▁Davies	-11.5447
▁Patterson	-11.5447
▁built	-11.5447
▁sync	-11.5447
▁wholesome	-11.5447
▁cream	-11.5447
▁Warren	-11.5447
▁storm	-11.5448
▁Wish	-11.5448
▁preacher	-11.5448
▁mechanical	-11.5448
aux	-11.5449
▁homicid	-11.545
▁winner	-11.545
▁arrived	-11.5451
Steve	-11.5451
▁Robot	-11.5452
Open	-11.5452
▁dash	-11.5452
▁talentless	-11.5453
▁Meg	-11.5454
▁showdown	-11.5454
▁meantime	-11.5454
nnell	-11.5455
▁intimate	-11.5455
▁cruci	-11.5456
ousehold	-11.5459
▁pursued	-11.5459
▁drift	-11.5459
▁Producer	-11.546
▁justified	-11.546
▁topless	-11.546
leng	-11.546
▁generated	-11.5462
▁heroic	-11.5462
▁dust	-11.5462
▁engineer	-11.5462
full	-11.5463
▁adore	-11.5465
▁clone	-11.5466
▁Von	-11.5466
▁rail	-11.5468
▁balanced	-11.5468
▁restrained	-11.5468
▁dumped	-11.5468
ckland	-11.5469
▁/>2.	-11.547
▁provoking	-11.5471
▁Lone	-11.5471
▁customer	-11.5472
▁function	-11.5472
▁nation	-11.5472
▁Belle	-11.5473
▁Seven	-11.5473
▁Bach	-11.5473
▁bow	-11.5473
▁Beth	-11.5473
▁severely	-11.5475
▁sexist	-11.5475
▁trail	-11.5478
▁needless	-11.5479
▁religion	-11.548
▁press	-11.5481
▁circle	-11.5482
▁placement	-11.5482
▁Human	-11.5483
▁LOT	-11.5483
▁cutter	-11.5485
▁mail	-11.5485
▁Salma	-11.5485
▁neo	-11.5487
▁setup	-11.549
▁tender	-11.5494
▁automatic	-11.5495
▁Milla	-11.5497
▁quietly	-11.5497
▁solved	-11.5499
▁devi	-11.55
drum	-11.55
▁devastating	-11.55
▁Interna	-11.5501
▁Spacey	-11.5507
▁Doll	-11.551
▁outset	-11.5512
▁DC	-11.5516
▁rose	-11.5516
▁Gary	-11.5517
▁Lion	-11.5521
▁inventor	-11.5523
▁TR	-11.5524
▁traditional	-11.5526
acco	-11.5527
Vincent	-11.5531
▁moody	-11.5532
▁SF	-11.5534
▁shove	-11.5535
theless	-11.5535
▁awfulness	-11.5538
▁eve	-11.5541
▁MR	-11.5542
▁misse	-11.5543
▁Killer	-11.5544
finitely	-11.5548
▁MM	-11.5548
▁leaden	-11.5551
▁FL	-11.5551
▁endlessly	-11.5551
ntage	-11.5552
▁cringed	-11.5553
▁rear	-11.5556
▁Republican	-11.5557
▁BR	-11.5559
ambi	-11.556
dicated	-11.5561
inning	-11.5566
▁Pest	-11.5569
▁appreciated	-11.5569
▁Sir	-11.5579
▁improved	-11.5582
▁Soon	-11.5585
▁reform	-11.5587
aaaa	-11.5588
Manding	-11.5597
honey	-11.5601
▁height	-11.561
▁code	-11.5612
▁chipmunk	-11.5614
▁tagg	-11.5615
▁sheet	-11.5617
wire	-11.5619
▁Set	-11.5625
dropping	-11.5627
▁Bret	-11.5628
case	-11.5632
59	-11.5643
iva	-11.5644
▁resolve	-11.5645
Tra	-11.5647
▁exit	-11.5658
▁Char	-11.5668
▁squa	-11.568
▁arch	-11.5688
true	-11.5693
/4	-11.5721
▁coll	-11.5725
▁fundamentalis	-11.5737
iya	-11.5757
bbie	-11.5777
▁commenter	-11.5794
▁ye	-11.58
orted	-11.5834
jack	-11.5844
▁blurr	-11.5857
37	-11.5876
▁buri	-11.5914
▁bark	-11.5937
stain	-11.5958
▁helpful	-11.5987
Superman	-11.5993
stern	-11.6025
huttle	-11.6029
dmittedly	-11.6056
romp	-11.606
verybody	-11.6064
▁Maria	-11.6066
(!)	-11.6091
▁san	-11.6103
▁revive	-11.6113
▁Gui	-11.6134
drew	-11.6137
ohan	-11.616
grin	-11.6196
Forget	-11.6223
▁Liz	-11.6226
▁clap	-11.625
Chil	-11.6262
▁follower	-11.6263
rose	-11.6266
▁esc	-11.6269
▁Conn	-11.6274
▁Stac	-11.6279
dorm	-11.6288
ryl	-11.6294
ORS	-11.6302
▁prob	-11.6318
talent	-11.6348
▁teache	-11.6349
Born	-11.6368
▁criticize	-11.6376
****	-11.6377
▁jaw	-11.6396
▁Abra	-11.6425
hav	-11.6434
VIL	-11.6449
llboy	-11.6463
comic	-11.6499
Mad	-11.654
▁Marsh	-11.6549
▁edit	-11.6575
stopping	-11.6594
▁CAN	-11.663
ading	-11.6666
base	-11.667
▁Live	-11.6696
rath	-11.6756
vag	-11.6765
▁focuse	-11.6766
nough	-11.6773
▁Tar	-11.6788
cum	-11.6799
▁investigate	-11.6811
ample	-11.6866
illian	-11.692
ronic	-11.6923
▁Anton	-11.6936
hearted	-11.6944
ffe	-11.6964
GO	-11.6969
PRI	-11.697
▁scarie	-11.6972
clad	-11.6972
ratio	-11.699
usually	-11.704
▁fundamental	-11.7041
▁vil	-11.7078
drive	-11.7085
▁showcas	-11.7097
rigg	-11.7109
▁dimension	-11.7134
▁explosion	-11.7135
▁creator	-11.7137
square	-11.7142
▁month	-11.7144
▁Jew	-11.7148
▁tea	-11.7163
▁(197	-11.7169
▁performer	-11.7184
MEN	-11.7188
▁machin	-11.7198
ccording	-11.72
cluded	-11.7202
wreck	-11.7226
▁decid	-11.7236
active	-11.7267
▁India	-11.7273
▁tack	-11.7275
▁Vince	-11.7287
▁endur	-11.7288
▁realiz	-11.7309
▁authentic	-11.731
▁photograph	-11.732
▁popula	-11.7321
▁illustrat	-11.7333
original	-11.7353
function	-11.7353
provoking	-11.7353
trip	-11.7353
present	-11.7353
=	-11.7353
Friday	-11.7353
Blood	-11.7354
Heather	-11.7354
▁prece	-11.7355
natural	-11.7355
Queen	-11.7355
thankfully	-11.7355
intellectual	-11.7356
Actually	-11.7356
correct	-11.7356
Catherine	-11.7356
William	-11.7356
Predator	-11.7357
adventure	-11.7357
Everything	-11.7357
Okay	-11.7357
Horror	-11.7357
Despi	-11.7357
Chuck	-11.7357
yeah	-11.7357
spirit	-11.7357
trick	-11.7357
build	-11.7357
Although	-11.7357
possible	-11.7357
released	-11.7357
average	-11.7357
Instead	-11.7357
David	-11.7357
husband	-11.7357
filled	-11.7357
production	-11.7358
different	-11.7358
everything	-11.7358
daughter	-11.7358
terrible	-11.7358
killer	-11.7358
free	-11.7358
great	-11.7358
Eye	-11.7359
plus	-11.7359
comedy	-11.7359
two	-11.7359
wrote	-11.736
fiction	-11.7361
cheek	-11.7362
▁pursu	-11.7363
text	-11.7363
through	-11.7364
60	-11.7364
starring	-11.7364
UM	-11.7364
high	-11.7368
Jim	-11.7368
▁arrest	-11.7368
Director	-11.7369
Wow	-11.7372
*1/2	-11.7373
before	-11.7374
▁Norma	-11.7375
Put	-11.7379
▁tho	-11.738
pelling	-11.7381
▁Hunt	-11.7383
▁possess	-11.7386
around	-11.7386
crew	-11.7387
▁chuck	-11.7387
▁marrie	-11.7387
▁tag	-11.7388
▁horn	-11.7392
▁dirt	-11.7393
Get	-11.7393
unless	-11.7395
▁enforce	-11.7399
music	-11.74
▁$3	-11.7401
Sound	-11.7402
Sure	-11.7404
selves	-11.7406
▁pond	-11.7407
▁multi	-11.741
▁bike	-11.7411
▁Brie	-11.7411
▁audi	-11.7412
Broc	-11.7413
semblance	-11.7413
▁comfort	-11.7414
▁HOT	-11.7414
▁premi	-11.7414
▁Michel	-11.7415
dela	-11.7415
▁Univers	-11.7415
▁celebrit	-11.7415
bow	-11.7415
▁courage	-11.7415
etective	-11.7417
itizen	-11.7417
ssentially	-11.7417
▁Kirk	-11.7417
clusion	-11.7417
tinct	-11.7417
▁trauma	-11.7417
▁apologi	-11.7417
>	-11.7417
▁stereo	-11.7417
cinematograph	-11.7417
immigrant	-11.7417
▁inhabit	-11.7417
Urban	-11.7418
▁ALERT	-11.7418
▁Belushi	-11.7418
▁compassion	-11.7418
▁comprehensi	-11.7418
▁emphasi	-11.7418
@	-11.7418
Scarlett	-11.7418
Sebastian	-11.7418
Trevor	-11.7418
chupacabra	-11.7418
cinct	-11.7418
rachnia	-11.7418
umblebee	-11.7418
unfinished	-11.7418
zoologist	-11.7418
í	-11.7418
▁(1999)	-11.7418
▁1964	-11.7418
▁1965	-11.7418
▁1972	-11.7418
▁2008	-11.7418
▁AFTER	-11.7418
▁Anthara	-11.7418
▁Avenue	-11.7418
▁Beethoven	-11.7418
▁Church	-11.7418
▁Convention	-11.7418
▁Corrupt	-11.7418
▁Cruise	-11.7418
▁Curtis	-11.7418
▁Detroit	-11.7418
▁Edmund	-11.7418
▁Empire	-11.7418
▁Exorcist	-11.7418
▁Fantasy	-11.7418
▁Hernandez	-11.7418
▁Hispanic	-11.7418
▁ISLAND	-11.7418
▁Inferno	-11.7418
▁Lorelei	-11.7418
▁Lubitsch	-11.7418
▁MUCH	-11.7418
▁MacLaine	-11.7418
▁Mandarin	-11.7418
▁McLaren	-11.7418
▁Minghella	-11.7418
▁Murray	-11.7418
▁Netflix	-11.7418
▁Patricia	-11.7418
▁Paxton	-11.7418
▁RUGRATS	-11.7418
▁Rhodes	-11.7418
▁Ribisi	-11.7418
▁Scrooge	-11.7418
▁Seitzman	-11.7418
▁Shadow	-11.7418
▁Simply	-11.7418
▁Simpson	-11.7418
▁Snyder	-11.7418
▁Spartans	-11.7418
▁Squad	-11.7418
▁Stryker	-11.7418
▁Sweden	-11.7418
▁TERRIBLE	-11.7418
▁Tabonga	-11.7418
▁Tarzan	-11.7418
▁Thomerson	-11.7418
▁Together	-11.7418
▁Trumbo	-11.7418
▁WITH	-11.7418
▁Watkins	-11.7418
▁Wynorski	-11.7418
▁Zealand	-11.7418
▁acknowledge	-11.7418
▁arrogant	-11.7418
▁autopsy	-11.7418
▁babysitter	-11.7418
▁bestiality	-11.7418
▁chapter	-11.7418
▁cheerleading	-11.7418
▁civilization	-11.7418
▁claustrophobi	-11.7418
▁collapses	-11.7418
▁colonel	-11.7418
▁conceivabl	-11.7418
▁condescending	-11.7418
▁contempt	-11.7418
▁contender	-11.7418
▁diamond	-11.7418
▁dispens	-11.7418
▁disrespect	-11.7418
▁diversion	-11.7418
▁duplicate	-11.7418
▁eccentric	-11.7418
▁elected	-11.7418
▁eloquent	-11.7418
▁emasculate	-11.7418
▁ensemble	-11.7418
▁entitled	-11.7418
▁entrance	-11.7418
▁extended	-11.7418
▁fantasies	-11.7418
▁fathom	-11.7418
▁guidance	-11.7418
▁harvest	-11.7418
▁hitchhiker	-11.7418
▁hybrid	-11.7418
▁idiocy	-11.7418
▁improbable	-11.7418
▁instructor	-11.7418
▁instrument	-11.7418
▁lecture	-11.7418
▁lunatic	-11.7418
▁luxury	-11.7418
▁magnitude	-11.7418
▁manufactur	-11.7418
▁morbid	-11.7418
▁murky	-11.7418
▁nutshell	-11.7418
▁obligator	-11.7418
▁oblivio	-11.7418
▁obscene	-11.7418
▁phenomena	-11.7418
▁pocket	-11.7418
▁practice	-11.7418
▁prevail	-11.7418
▁producing	-11.7418
▁prostitute	-11.7418
▁puppy	-11.7418
▁puzzling	-11.7418
▁redneck	-11.7418
▁response	-11.7418
▁scarecrow	-11.7418
▁silhouette	-11.7418
▁simultaneous	-11.7418
▁squeeze	-11.7418
▁superfluous	-11.7418
▁territory	-11.7418
▁twelve	-11.7418
▁violin	-11.7418
▁wolf	-11.7418
Predictabl	-11.7418
▁1957	-11.7418
▁BORING	-11.7418
▁Granny	-11.7418
▁Hackman	-11.7418
▁Houston	-11.7418
▁Kelley	-11.7418
▁Krasinski	-11.7418
▁Lecter	-11.7418
▁Necklace	-11.7418
▁Savage	-11.7418
▁Simmons	-11.7418
▁Sydow	-11.7418
▁WTF	-11.7418
▁Writer	-11.7418
▁appalled	-11.7418
▁consummat	-11.7418
▁electrocuted	-11.7418
▁evolution	-11.7418
▁infiltrat	-11.7418
▁mediocrity	-11.7418
▁moderately	-11.7418
▁ocean	-11.7418
▁opportunities	-11.7418
▁pistol	-11.7418
▁profanity	-11.7418
▁refund	-11.7418
▁register	-11.7418
▁soccer	-11.7418
▁suspend	-11.7418
▁triumph	-11.7418
▁unemploy	-11.7418
▁wacky	-11.7418
▁wilderness	-11.7418
NESS	-11.7418
▁/>4/10	-11.7418
▁Boorman	-11.7418
▁Flesh	-11.7418
▁Palmer	-11.7418
▁Pierce	-11.7418
▁Reality	-11.7418
▁Slayer	-11.7418
▁contract	-11.7418
▁granted	-11.7418
▁spectacle	-11.7418
▁unleash	-11.7418
▁wax	-11.7418
incarnation	-11.7418
▁/>2/10	-11.7418
▁Jacob	-11.7418
▁Lauter	-11.7418
▁Million	-11.7418
▁mimic	-11.7418
▁repris	-11.7418
▁rifle	-11.7418
▁snob	-11.7418
recognizable	-11.7418
▁glorifie	-11.7418
▁ineffective	-11.7418
▁insect	-11.7418
▁stimulat	-11.7418
▁uncover	-11.7418
Northfork	-11.7418
nterprise	-11.7418
▁DAY	-11.7418
▁Derek	-11.7418
▁Direction	-11.7418
▁Glass	-11.7418
▁PLA	-11.7418
▁Pegg	-11.7418
▁drain	-11.7418
▁jean	-11.7418
▁manifest	-11.7418
▁Morris	-11.7418
▁crawl	-11.7418
▁mankind	-11.7418
▁spoon	-11.7418
▁undoubted	-11.7418
▁Moko	-11.7418
▁Tyler	-11.7418
▁cousin	-11.7418
▁library	-11.7418
▁Worse	-11.7418
▁khan	-11.7418
▁Action	-11.7418
▁Tatum	-11.7418
▁climb	-11.7418
▁Faye	-11.7418
▁spray	-11.7418
▁BLA	-11.7418
▁mayhem	-11.7418
▁motif	-11.7418
.99	-11.7418
glorious	-11.7418
▁whining	-11.7418
▁Pyun	-11.7418
▁microphone	-11.7418
▁Huston	-11.7418
▁cigarette	-11.7418
▁digress	-11.7418
▁Town	-11.7418
▁documentaries	-11.7418
▁behold	-11.7418
▁mercifully	-11.7418
▁Andersen	-11.7418
▁Glob	-11.7418
▁civili	-11.7418
▁waist	-11.7418
▁wisecrack	-11.7418
▁Mendes	-11.7418
adosh	-11.7418
▁gush	-11.7418
://	-11.7418
▁Command	-11.7418
▁sperm	-11.7418
▁outdoor	-11.7418
AIL	-11.7418
▁Jungle	-11.7418
provocati	-11.7418
▁Dickens	-11.7418
▁Clint	-11.7418
▁domain	-11.7418
▁extract	-11.7418
▁1988	-11.7418
▁rivet	-11.7418
Lolita	-11.7418
▁estima	-11.7418
rewind	-11.7418
temper	-11.7418
▁gull	-11.7418
▁Lambert	-11.7418
▁penned	-11.7418
▁Fried	-11.7418
CTOR	-11.7418
▁orange	-11.7418
▁vulnerable	-11.7418
▁libert	-11.7418
▁mutilat	-11.7418
▁crossbow	-11.7418
▁National	-11.7418
roposal	-11.7418
▁outcome	-11.7418
▁tactic	-11.7418
▁therapy	-11.7418
▁flimsy	-11.7418
▁grandfather	-11.7418
▁sweat	-11.7418
▁yawn	-11.7418
▁predictability	-11.7418
▁distort	-11.7418
▁medicin	-11.7418
▁pathos	-11.7418
▁Point	-11.7418
▁Shot	-11.7418
▁Calm	-11.7418
AKE	-11.7418
▁existential	-11.7418
▁overdone	-11.7418
▁tolerance	-11.7418
▁bandits	-11.7418
▁enhanc	-11.7418
▁Project	-11.7418
▁gallon	-11.7418
▁underdeveloped	-11.7418
▁Sunday	-11.7418
▁General	-11.7418
▁Thunder	-11.7418
▁Claire	-11.7419
▁limitations	-11.7419
▁midget	-11.7419
▁cruise	-11.7419
▁observation	-11.7419
Kar	-11.7419
▁Toad	-11.7419
▁staff	-11.7419
▁marvelous	-11.7419
▁1920	-11.7419
▁Caddy	-11.7419
▁resistance	-11.7419
▁Sister	-11.7419
▁Phantom	-11.7419
▁Harold	-11.7419
▁misfire	-11.7419
▁Police	-11.7419
▁specifically	-11.7419
▁Runner	-11.7419
▁rude	-11.7419
▁viewpoint	-11.7419
981	-11.7419
▁Chong	-11.7419
▁Malick	-11.742
▁unlikable	-11.742
▁chomp	-11.742
▁Harper	-11.742
▁celebrities	-11.742
▁manipulation	-11.742
▁WANT	-11.742
▁desk	-11.742
KIN	-11.742
arigold	-11.742
▁:-)	-11.742
▁hunk	-11.742
See	-11.742
▁DOWN	-11.742
▁STAR	-11.742
▁bedroom	-11.742
▁slant	-11.742
▁reverse	-11.742
▁HELL	-11.742
▁Country	-11.742
▁eject	-11.742
▁whip	-11.742
▁Atwill	-11.7421
▁August	-11.7421
▁hairstyle	-11.7421
▁recip	-11.7421
▁distraction	-11.7421
▁whine	-11.7421
▁crass	-11.7421
▁trough	-11.7421
▁prospect	-11.7421
▁circus	-11.7421
▁homosexuality	-11.7421
▁pleasing	-11.7421
▁misery	-11.7421
egon	-11.7421
▁frail	-11.7421
▁bread	-11.7421
OWN	-11.7421
▁Reggio	-11.7421
▁eighties	-11.7421
▁99	-11.7421
▁JUR	-11.7421
▁SOLO	-11.7422
Reason	-11.7422
▁careful	-11.7422
▁Orthodox	-11.7422
▁spaceship	-11.7422
▁electricity	-11.7422
▁Room	-11.7422
litary	-11.7422
▁Ugh	-11.7422
▁skipping	-11.7423
▁corruption	-11.7423
▁HAL	-11.7423
▁Ruby	-11.7423
▁galore	-11.7423
▁conventional	-11.7423
▁hoot	-11.7423
▁rack	-11.7423
▁rotten	-11.7423
▁Pleasence	-11.7423
▁Cuba	-11.7423
▁attendant	-11.7423
▁ripoff	-11.7423
▁route	-11.7423
Mandy	-11.7423
▁lava	-11.7423
OUS	-11.7424
▁slavery	-11.7424
▁petty	-11.7424
▁naive	-11.7424
ilver	-11.7424
rmaid	-11.7424
▁spring	-11.7424
▁Flat	-11.7424
▁Golan	-11.7424
▁Spe	-11.7424
▁subpar	-11.7425
▁Carrie	-11.7425
▁clock	-11.7425
▁masterful	-11.7425
▁basement	-11.7425
▁roof	-11.7425
▁insufferable	-11.7425
▁penetrate	-11.7425
▁1993	-11.7426
▁Chupacabra	-11.7426
▁Extreme	-11.7426
▁steel	-11.7426
▁slid	-11.7426
▁rapper	-11.7426
▁glue	-11.7426
▁flop	-11.7427
▁patch	-11.7427
▁soooo	-11.7427
▁thrust	-11.7427
▁cents	-11.7427
▁dramatically	-11.7427
▁Bern	-11.7427
▁discussion	-11.7427
▁antics	-11.7428
▁Mali	-11.7428
▁Katt	-11.7428
Break	-11.7428
unseen	-11.7429
▁clunker	-11.7429
▁Cyn	-11.7429
evenge	-11.7429
▁Feel	-11.7429
▁stoner	-11.743
▁involvement	-11.743
aristocrat	-11.743
▁sketches	-11.743
▁Luck	-11.743
▁considerably	-11.7431
▁strain	-11.7431
▁blaz	-11.7431
cular	-11.7431
▁emotionless	-11.7432
Emil	-11.7432
▁extraordinary	-11.7433
▁colorful	-11.7433
▁raw	-11.7433
▁Shir	-11.7433
Enter	-11.7433
ourke	-11.7433
▁respective	-11.7434
▁confrontation	-11.7434
▁sack	-11.7434
▁dys	-11.7434
▁transformation	-11.7434
▁EVERY	-11.7435
▁Mika	-11.7435
▁humbl	-11.7435
16	-11.7435
▁Money	-11.7435
▁concocted	-11.7435
ASA	-11.7435
▁exploration	-11.7436
thology	-11.7436
hole	-11.7436
▁improvised	-11.7436
▁Today	-11.7436
▁Diana	-11.7437
▁Duck	-11.7439
▁wings	-11.744
▁unclear	-11.744
▁MTV	-11.744
leans	-11.744
▁burst	-11.744
▁Fast	-11.744
▁standout	-11.7441
▁remarkable	-11.7441
▁MAD	-11.7441
▁NY	-11.7441
▁fatale	-11.7442
▁Cook	-11.7443
▁Deep	-11.7443
▁Crew	-11.7444
▁surfer	-11.7446
▁Hmm	-11.7446
laced	-11.7447
THING	-11.7448
lvin	-11.7448
▁witches	-11.7448
▁perk	-11.7449
brush	-11.7449
▁PAR	-11.7449
▁exhaust	-11.745
▁Grand	-11.745
▁yo	-11.745
files	-11.745
▁hitch	-11.7451
▁wheel	-11.7451
▁spice	-11.7452
▁Serve	-11.7453
▁beep	-11.7454
MIN	-11.7455
▁forgiven	-11.7455
▁28	-11.7455
naut	-11.7455
▁;)	-11.7456
▁Rice	-11.7458
▁Newman	-11.7458
▁shin	-11.7459
▁Asia	-11.7459
▁Roth	-11.746
▁vain	-11.746
▁Rug	-11.746
▁Hunter	-11.7461
▁crop	-11.7461
▁Wall	-11.7461
baked	-11.7461
▁eater	-11.7461
▁stray	-11.7461
▁talkie	-11.7462
▁embar	-11.7462
▁scratchy	-11.7462
▁lyrical	-11.7463
▁usage	-11.7463
▁/>7.	-11.7463
▁manure	-11.7463
▁overboard	-11.7463
▁Rent	-11.7465
▁sail	-11.7466
▁Cut	-11.7468
▁weakness	-11.7468
▁bash	-11.7468
hmm	-11.7469
▁outlook	-11.747
▁22	-11.7471
▁Off	-11.7473
▁choppy	-11.7475
wives	-11.7475
▁Award	-11.748
▁Forty	-11.7483
▁map	-11.7483
▁menu	-11.7483
▁dial	-11.7486
2007	-11.7486
ummy	-11.7487
everal	-11.7488
YING	-11.7489
nthra	-11.749
▁FF	-11.7495
▁Saw	-11.7496
MOST	-11.7497
▁Stop	-11.7501
▁Cain	-11.7502
▁App	-11.7503
▁illustrate	-11.7503
▁helpless	-11.7506
▁hatch	-11.751
▁populate	-11.751
▁Fid	-11.7512
▁larger	-11.7515
▁demean	-11.7517
Ali	-11.7521
▁compos	-11.7522
1982	-11.7523
UMB	-11.7526
▁Mall	-11.7526
Was	-11.7526
▁Hur	-11.753
▁Nicola	-11.7536
thora	-11.7541
▁Jur	-11.7542
▁factory	-11.7543
flex	-11.7544
hipwreck	-11.7545
▁tackle	-11.7555
▁Walter	-11.7564
▁flipp	-11.7574
▁legal	-11.7592
▁forbid	-11.7594
▁boost	-11.7599
▁vaca	-11.76
▁refugee	-11.76
▁dipp	-11.7604
▁Tyr	-11.7611
▁Sk	-11.7612
▁tease	-11.7625
▁heartbreak	-11.7627
▁Oma	-11.7632
▁promotion	-11.7648
boomer	-11.7653
ornado	-11.7686
▁stripp	-11.771
talk	-11.7711
▁Gues	-11.7717
69	-11.7717
pass	-11.7735
essa	-11.7757
Bride	-11.7769
▁slam	-11.779
▁Trip	-11.779
▁Preach	-11.7794
Have	-11.7795
RED	-11.7805
▁spec	-11.7818
TS	-11.7853
▁sir	-11.7861
▁deform	-11.7886
▁dodg	-11.7899
hopping	-11.7964
▁plumb	-11.7975
▁Nig	-11.7989
erior	-11.7992
▁Walke	-11.7998
▁cage	-11.8064
anche	-11.8105
▁Mode	-11.8143
aft	-11.8153
literate	-11.8249
ffrey	-11.8264
▁Marv	-11.8276
edric	-11.8292
▁contribute	-11.8292
▁sadde	-11.8306
▁fatal	-11.8314
collector	-11.832
▁Winn	-11.8334
▁Bab	-11.8349
▁$50	-11.835
▁penni	-11.837
▁$4	-11.8432
▁Cage	-11.8445
▁substitute	-11.8464
▁dominate	-11.8536
▁inevitab	-11.8555
huh	-11.8567
jawed	-11.8569
▁sle	-11.8616
Bash	-11.8642
▁matur	-11.8645
grim	-11.8668
bec	-11.8684
Ghoulies	-11.8711
enni	-11.8714
EVER	-11.8765
truck	-11.8837
▁visualiz	-11.8839
▁Jar	-11.8853
▁shape	-11.8889
ogue	-11.8897
▁slum	-11.8898
create	-11.9044
Box	-11.905
Nine	-11.9067
otte	-11.9095
▁Facto	-11.9184
former	-11.9233
ourne	-11.9237
wakening	-11.9425
Golden	-11.9461
rail	-11.9465
▁handl	-11.9596
▁torn	-11.9624
▁thumb	-11.9634
sibl	-11.9636
▁sham	-11.9647
▁sport	-11.9655
idden	-11.9656
Cind	-11.969
otally	-11.9705
Gene	-11.973
anni	-11.974
killed	-11.9744
▁strik	-11.9748
▁Anti	-11.979
▁distract	-11.9798
▁embarrass	-11.9802
▁disturb	-11.9803
cause	-11.9819
▁(192	-11.9822
burg	-11.9824
▁remin	-11.9826
▁custom	-11.9833
evil	-11.9834
▁complet	-11.9844
telling	-11.9848
drift	-11.9853
Skeleto	-11.9853
Bottom	-11.9853
True	-11.9854
AWFUL	-11.9854
Para	-11.9854
Grade	-11.9855
Character	-11.9855
erotic	-11.9855
▁battl	-11.9855
Lesl	-11.9855
Max	-11.9855
fortune	-11.9855
barrel	-11.9855
Really	-11.9856
Secret	-11.9856
claim	-11.9856
Monster	-11.9856
#	-11.9856
Charlie	-11.9856
shadow	-11.9856
Acting	-11.9856
Sadly	-11.9856
accept	-11.9856
blind	-11.9856
Poor	-11.9857
Laure	-11.9857
Charles	-11.9857
frame	-11.9857
romantic	-11.9857
Plus	-11.9857
horse	-11.9857
Because	-11.9857
Richard	-11.9857
trust	-11.9857
documentary	-11.9857
earth	-11.9858
experience	-11.9858
complete	-11.9858
quality	-11.9858
killing	-11.9858
probably	-11.9858
stupid	-11.9858
script	-11.9858
should	-11.9858
biker	-11.9858
people	-11.9858
first	-11.9858
twist	-11.9858
poor	-11.9859
AND	-11.9859
NOT	-11.9859
Eric	-11.9859
artistic	-11.986
Hope	-11.9862
justice	-11.9863
Rob	-11.9864
sense	-11.9865
Later	-11.9866
styl	-11.9867
▁restrain	-11.9867
again	-11.9867
credit	-11.9868
cutter	-11.9869
Come	-11.9869
▁abandon	-11.9869
Someone	-11.9871
capable	-11.9872
change	-11.9873
box	-11.9873
game	-11.9875
▁typ	-11.9877
▁immediate	-11.9879
12	-11.9879
▁easi	-11.9884
boat	-11.9885
▁Israel	-11.9886
half	-11.9887
▁choos	-11.9888
▁quirk	-11.9891
upper	-11.9892
▁Short	-11.9892
▁energ	-11.9893
▁---------	-11.9895
▁hipp	-11.9896
▁tomb	-11.9896
▁suspens	-11.9898
▁dang	-11.9899
▁broke	-11.9899
▁trivia	-11.99
wolves	-11.99
▁stone	-11.9902
minate	-11.9903
▁Spring	-11.9903
▁clunk	-11.9903
Brother	-11.9904
UGH	-11.9904
▁innovati	-11.9906
,000,000	-11.9907
▁convention	-11.9912
URE	-11.9913
aneous	-11.9915
▁Suz	-11.9915
▁avail	-11.9915
CUR	-11.9915
uspens	-11.9916
▁document	-11.9916
▁totalitarian	-11.9916
▁Kurt	-11.9916
▁excess	-11.9916
describ	-11.9917
▁fruit	-11.9917
▁orphan	-11.9917
apanese	-11.9917
▁Columb	-11.9917
elcome	-11.9917
ubconsci	-11.9917
▁integra	-11.9917
istorical	-11.9917
▁pump	-11.9917
Fortunate	-11.9917
gnant	-11.9917
Screen	-11.9917
olcano	-11.9917
▁charlatan	-11.9917
$$$	-11.9917
▁Pinocchio	-11.9917
▁Zellweg	-11.9917
▁industri	-11.9917
Technic	-11.9918
@$$	-11.9918
Caribbean	-11.9918
Cheerleader	-11.9918
Herzog	-11.9918
INAL	-11.9918
Rebecca	-11.9918
Tanishaa	-11.9918
congratulat	-11.9918
orrespond	-11.9918
phenomenon	-11.9918
quisite	-11.9918
rehearsed	-11.9918
secration	-11.9918
servant	-11.9918
wiedzmin	-11.9918
à	-11.9918
▁'70	-11.9918
▁1933	-11.9918
▁1935	-11.9918
▁1939	-11.9918
▁1979	-11.9918
▁1986	-11.9918
▁2004	-11.9918
▁Affair	-11.9918
▁Affleck	-11.9918
▁Almodovar	-11.9918
▁Argentinian	-11.9918
▁Arquette	-11.9918
▁BOMB	-11.9918
▁Buchanan	-11.9918
▁Buffalo	-11.9918
▁COME	-11.9918
▁Cheyenne	-11.9918
▁Committe	-11.9918
▁Concorde	-11.9918
▁Cruelty	-11.9918
▁Dafoe	-11.9918
▁Democrat	-11.9918
▁Dreyfuss	-11.9918
▁Dvorak	-11.9918
▁Elliot	-11.9918
▁FRANKENSTEIN	-11.9918
▁Florida	-11.9918
▁Fontaine	-11.9918
▁Gilliam	-11.9918
▁Gloria	-11.9918
▁Goldsmith	-11.9918
▁Goudurix	-11.9918
▁Govinda	-11.9918
▁Griffith	-11.9918
▁Grudge	-11.9918
▁Gwangi	-11.9918
▁Hepburn	-11.9918
▁Hungarian	-11.9918
▁Kentucky	-11.9918
▁Killjoy	-11.9918
▁Kramer	-11.9918
▁Laramie	-11.9918
▁Lenzi	-11.9918
▁Madonna	-11.9918
▁Monogram	-11.9918
▁Moriarty	-11.9918
▁Morocc	-11.9918
▁Muslim	-11.9918
▁Newcastle	-11.9918
▁Nickelodeon	-11.9918
▁Nikki	-11.9918
▁Norwegian	-11.9918
▁Olivi	-11.9918
▁Olympic	-11.9918
▁Pakistan	-11.9918
▁Particularly	-11.9918
▁Physic	-11.9918
▁Plowright	-11.9918
▁Polanski	-11.9918
▁Posehn	-11.9918
▁Prisoner	-11.9918
▁Production	-11.9918
▁Seyfried	-11.9918
▁Shoeshine	-11.9918
▁Slasher	-11.9918
▁Stallone	-11.9918
▁Stefan	-11.9918
▁Suddenly	-11.9918
▁Temple	-11.9918
▁Temujin	-11.9918
▁Teresa	-11.9918
▁Tomorrow	-11.9918
▁Turkish	-11.9918
▁Veronica	-11.9918
▁Wilkinson	-11.9918
▁Winslet	-11.9918
▁Wonka	-11.9918
▁Wurtzel	-11.9918
▁ZERO	-11.9918
▁Zeena	-11.9918
▁adrenalin	-11.9918
▁arbitrar	-11.9918
▁arrival	-11.9918
▁arrogance	-11.9918
▁atmospheric	-11.9918
▁attachment	-11.9918
▁basketball	-11.9918
▁bloated	-11.9918
▁bloke	-11.9918
▁bulb	-11.9918
▁bullshit	-11.9918
▁calibre	-11.9918
▁caution	-11.9918
▁certificate	-11.9918
▁chump	-11.9918
▁communicate	-11.9918
▁continuous	-11.9918
▁corridor	-11.9918
▁critique	-11.9918
▁cylinder	-11.9918
▁database	-11.9918
▁default	-11.9918
▁determination	-11.9918
▁diploma	-11.9918
▁disastrous	-11.9918
▁disposal	-11.9918
▁distasteful	-11.9918
▁distress	-11.9918
▁dystopian	-11.9918
▁economy	-11.9918
▁endeavor	-11.9918
▁engulf	-11.9918
▁evacuate	-11.9918
▁exhibit	-11.9918
▁feminine	-11.9918
▁financing	-11.9918
▁genital	-11.9918
▁ghastly	-11.9918
▁gigantic	-11.9918
▁global	-11.9918
▁grimace	-11.9918
▁grotesque	-11.9918
▁helmet	-11.9918
▁imitate	-11.9918
▁improvisation	-11.9918
▁indifference	-11.9918
▁infuriat	-11.9918
▁interlude	-11.9918
▁intermittent	-11.9918
▁intervals	-11.9918
▁intricate	-11.9918
▁irresponsibl	-11.9918
▁license	-11.9918
▁maximu	-11.9918
▁miraculous	-11.9918
▁mishmash	-11.9918
▁misunderstood	-11.9918
▁monument	-11.9918
▁nephew	-11.9918
▁nickname	-11.9918
▁nuisance	-11.9918
▁obsession	-11.9918
▁overbearing	-11.9918
▁paranoia	-11.9918
▁permanent	-11.9918
▁permission	-11.9918
▁perpetrat	-11.9918
▁pizza	-11.9918
▁politician	-11.9918
▁pornographic	-11.9918
▁preparation	-11.9918
▁radiation	-11.9918
▁ravens	-11.9918
▁refined	-11.9918
▁respond	-11.9918
▁responsibility	-11.9918
▁retrieve	-11.9918
▁rhythm	-11.9918
▁slobber	-11.9918
▁sophomoric	-11.9918
▁stroke	-11.9918
▁supplie	-11.9918
▁surgery	-11.9918
▁suspicions	-11.9918
▁symptom	-11.9918
▁syrup	-11.9918
▁temptation	-11.9918
▁transvestite	-11.9918
▁unforgivable	-11.9918
▁unhappy	-11.9918
▁unimpressive	-11.9918
▁unsettling	-11.9918
▁voyage	-11.9918
▁website	-11.9918
▁worries	-11.9918
▁yesterday	-11.9918
Typical	-11.9918
▁1966	-11.9918
▁2003	-11.9918
▁Actress	-11.9918
▁Bennett	-11.9918
▁Cochran	-11.9918
▁Epps	-11.9918
▁Lombard	-11.9918
▁Lundgre	-11.9918
▁Malkovich	-11.9918
▁Milner	-11.9918
▁November	-11.9918
▁Ogrodnik	-11.9918
▁Raptor	-11.9918
▁Razzie	-11.9918
▁Reagan	-11.9918
▁Rosemary	-11.9918
▁Suicide	-11.9918
▁Sydney	-11.9918
▁Tierney	-11.9918
▁Venezuela	-11.9918
▁Wrong	-11.9918
▁Zanti	-11.9918
▁ambiance	-11.9918
▁assistance	-11.9918
▁bludgeon	-11.9918
▁breathtaking	-11.9918
▁celebrate	-11.9918
▁confirm	-11.9918
▁disinterest	-11.9918
▁dispatch	-11.9918
▁finance	-11.9918
▁glance	-11.9918
▁grandmother	-11.9918
▁hollywood	-11.9918
▁implication	-11.9918
▁innocence	-11.9918
▁marine	-11.9918
▁mawkish	-11.9918
▁medication	-11.9918
▁misplaced	-11.9918
▁narrow	-11.9918
▁niece	-11.9918
▁obscurity	-11.9918
▁opposition	-11.9918
▁perverse	-11.9918
▁pioneer	-11.9918
▁saxophon	-11.9918
▁tarnish	-11.9918
▁tomorrow	-11.9918
▁unintelligible	-11.9918
▁vagina	-11.9918
▁videotape	-11.9918
ICAL	-11.9918
IEVE	-11.9918
ORRID	-11.9918
centric	-11.9918
exploding	-11.9918
gram	-11.9918
▁Colonel	-11.9918
▁GLEN	-11.9918
▁Gamble	-11.9918
▁Generation	-11.9918
▁Ghost	-11.9918
▁Latino	-11.9918
▁Legend	-11.9918
▁Magoo	-11.9918
▁RUN	-11.9918
▁Renoir	-11.9918
▁SEX	-11.9918
▁TWO	-11.9918
▁Vienna	-11.9918
▁Whine	-11.9918
▁avenge	-11.9918
▁casino	-11.9918
▁clutter	-11.9918
▁dunno	-11.9918
▁fortunate	-11.9918
▁identified	-11.9918
▁packaging	-11.9918
▁psychology	-11.9918
▁resign	-11.9918
▁scatter	-11.9918
▁senile	-11.9918
▁squawk	-11.9918
▁thwart	-11.9918
▁traitor	-11.9918
▁unravel	-11.9918
▁valley	-11.9918
arricade	-11.9918
cclaimed	-11.9918
▁Dallas	-11.9918
▁Swiss	-11.9918
▁Venus	-11.9918
▁princess	-11.9918
▁ribs	-11.9918
▁rumble	-11.9918
evaluate	-11.9918
▁Herbie	-11.9918
▁Lassie	-11.9918
▁Rhys	-11.9918
▁Rooker	-11.9918
▁Uzi	-11.9918
▁Wisdom	-11.9918
▁alarm	-11.9918
▁bastard	-11.9918
▁emoting	-11.9918
▁feeble	-11.9918
▁request	-11.9918
▁reserve	-11.9918
▁suburb	-11.9918
▁vivid	-11.9918
Titanic	-11.9918
escapist	-11.9918
flec	-11.9918
ovich	-11.9918
▁Arnie	-11.9918
▁Blank	-11.9918
▁Canutt	-11.9918
▁Conrad	-11.9918
▁Govern	-11.9918
▁Parrot	-11.9918
▁Pesci	-11.9918
▁Quintet	-11.9918
▁Turman	-11.9918
▁captioning	-11.9918
▁cheesi	-11.9918
▁conviction	-11.9918
▁farcical	-11.9918
▁lewd	-11.9918
▁limb	-11.9918
STORY	-11.9918
hahaha	-11.9918
▁Alexander	-11.9918
▁Klein	-11.9918
▁Place	-11.9918
▁envy	-11.9918
▁regain	-11.9918
▁Roeg	-11.9918
▁shotgun	-11.9918
rrol	-11.9918
▁Commandments	-11.9918
▁aimlessly	-11.9918
▁compensat	-11.9918
▁patent	-11.9918
▁tentacle	-11.9918
adium	-11.9918
▁Sartre	-11.9918
▁Tobel	-11.9918
▁elicit	-11.9918
▁trump	-11.9918
QUE	-11.9918
▁Frost	-11.9918
▁Malco	-11.9918
▁Scout	-11.9918
▁Predali	-11.9918
▁Winter	-11.9918
▁Zeus	-11.9918
▁mutant	-11.9918
▁operative	-11.9918
▁unwisely	-11.9918
Return	-11.9918
acious	-11.9918
▁Spears	-11.9918
▁snipp	-11.9918
▁Bhatt	-11.9918
▁coincidental	-11.9918
▁mustache	-11.9918
▁Cross	-11.9918
▁Zero	-11.9918
▁gadget	-11.9918
▁Nolte	-11.9918
▁culminat	-11.9918
▁quaint	-11.9918
ALIEN	-11.9918
▁havoc	-11.9918
▁manual	-11.9918
▁thespian	-11.9918
▁Treat	-11.9918
▁Pryor	-11.9918
▁ensure	-11.9918
▁surpass	-11.9918
▁sympathize	-11.9918
anthrop	-11.9918
▁Yep	-11.9918
▁wimp	-11.9918
▁ABC	-11.9918
▁Instinct	-11.9918
▁Crane	-11.9918
▁Doyle	-11.9918
▁backyard	-11.9918
▁detach	-11.9918
▁shelter	-11.9918
▁Dancing	-11.9918
▁scalp	-11.9918
omplications	-11.9918
Maltin	-11.9918
estination	-11.9918
ptuous	-11.9918
▁frightened	-11.9918
▁uplifting	-11.9918
▁welder	-11.9918
▁wielding	-11.9918
▁Commun	-11.9918
▁cattle	-11.9918
▁Farrell	-11.9918
▁Lorre	-11.9918
▁Nevertheless	-11.9918
▁terminal	-11.9918
▁Example	-11.9918
▁Holocaust	-11.9918
▁Kensit	-11.9918
▁Olen	-11.9918
▁blessing	-11.9918
pussy	-11.9918
▁Betty	-11.9918
▁Goya	-11.9918
▁spree	-11.9918
▁textbook	-11.9918
▁pollut	-11.9918
▁Wallace	-11.9918
▁funeral	-11.9918
▁putrid	-11.9918
▁cloying	-11.9918
▁1984	-11.9918
▁psychiatric	-11.9918
▁Therefore	-11.9918
▁goodbye	-11.9918
Foreign	-11.9918
▁Beauty	-11.9918
▁CIA	-11.9918
▁CSI	-11.9918
▁contemplating	-11.9918
▁defined	-11.9918
▁Indeed	-11.9918
▁render	-11.9918
▁prompt	-11.9918
REAT	-11.9918
▁henchm	-11.9918
▁booze	-11.9918
▁0/10	-11.9918
▁Silly	-11.9918
▁flopped	-11.9918
▁biography	-11.9918
▁slipping	-11.9918
▁Feature	-11.9918
▁consistency	-11.9918
▁Compare	-11.9918
pulsive	-11.9919
▁backwards	-11.9919
▁clinic	-11.9919
▁motor	-11.9919
ttany	-11.9919
▁Luckily	-11.9919
▁proclaim	-11.9919
▁griev	-11.9919
▁sleepwalk	-11.9919
▁Kirkland	-11.9919
▁pornography	-11.9919
▁robbing	-11.9919
▁Landau	-11.9919
▁yank	-11.9919
▁Roadhouse	-11.9919
▁dismiss	-11.9919
▁dummy	-11.9919
▁imaginable	-11.9919
▁DeLu	-11.9919
LOL	-11.9919
▁Columbia	-11.9919
nately	-11.9919
▁burden	-11.9919
▁Additiona	-11.9919
▁idol	-11.9919
▁effe	-11.9919
▁institution	-11.9919
▁provoke	-11.9919
▁widescreen	-11.9919
▁View	-11.9919
▁Vikings	-11.9919
▁barbari	-11.992
▁woke	-11.992
▁Kiss	-11.992
▁craving	-11.992
▁Camber	-11.992
▁whale	-11.992
▁cloud	-11.992
▁nonetheless	-11.992
▁Tiger	-11.992
IZE	-11.992
▁Theatre	-11.992
▁nauseating	-11.992
▁kink	-11.992
▁Bryan	-11.992
▁annals	-11.992
▁Barkin	-11.992
▁drawback	-11.992
▁undeveloped	-11.992
▁Suzie	-11.992
▁authorities	-11.992
▁courageous	-11.992
ehind	-11.992
▁exploitative	-11.992
▁royal	-11.992
▁Tanner	-11.992
mandatory	-11.992
▁fluid	-11.9921
▁gravit	-11.9921
▁knee	-11.9921
▁slurs	-11.9921
▁attain	-11.9921
▁delusional	-11.9921
▁University	-11.9921
▁Abbey	-11.9921
▁Belgian	-11.9921
▁Singaporean	-11.9921
▁tiring	-11.9921
Maximu	-11.9921
▁sheep	-11.9921
NAKE	-11.9921
▁WHO	-11.9921
▁keyboard	-11.9921
▁Odd	-11.9921
▁assignment	-11.9921
▁puke	-11.9921
2000)	-11.9921
glam	-11.9921
▁GORE	-11.9921
OTT	-11.9921
▁spew	-11.9921
▁Yawn	-11.9921
▁sanity	-11.9921
▁revival	-11.9921
TAY	-11.9921
▁Finney	-11.9921
▁submit	-11.9922
▁Baker	-11.9922
▁Beals	-11.9922
Ocean	-11.9922
▁beef	-11.9922
rticle	-11.9922
▁medium	-11.9922
EAK	-11.9922
▁haircut	-11.9922
▁summon	-11.9922
gnes	-11.9922
▁HOTD	-11.9922
licate	-11.9922
▁Reese	-11.9922
▁adher	-11.9922
▁whiz	-11.9922
izzle	-11.9922
▁Cough	-11.9922
Middle	-11.9922
▁shopping	-11.9922
▁Irene	-11.9922
▁Khoo	-11.9923
▁Hugo	-11.9923
▁rapist	-11.9923
▁madden	-11.9923
▁possession	-11.9923
▁passionate	-11.9923
▁HOW	-11.9923
▁bride	-11.9923
▁Bobby	-11.9923
▁collar	-11.9923
▁consumer	-11.9924
▁Tobin	-11.9924
▁Bogar	-11.9924
AKA	-11.9924
▁lodge	-11.9924
▁Powell	-11.9924
▁Megan	-11.9925
▁Showtime	-11.9925
▁GET	-11.9925
▁judgement	-11.9925
▁rebellio	-11.9925
▁jury	-11.9925
ASH	-11.9925
ahem	-11.9925
▁swim	-11.9925
▁pranc	-11.9926
▁Funny	-11.9926
▁Robson	-11.9926
▁"1"	-11.9926
▁midway	-11.9926
antastic	-11.9927
▁bullies	-11.9927
▁shall	-11.9927
▁fox	-11.9927
▁Khan	-11.9927
▁authority	-11.9928
▁Southern	-11.9928
▁priceless	-11.9928
▁191	-11.9928
▁candle	-11.9928
▁Thai	-11.9928
▁sarc	-11.9928
▁Princ	-11.9928
▁afore	-11.9928
▁Coke	-11.9928
ophie	-11.9928
▁Bergen	-11.9928
▁catalog	-11.9929
▁addiction	-11.9929
rammar	-11.9929
▁jet	-11.9929
▁pub	-11.993
▁bowl	-11.993
▁brick	-11.993
▁wipe	-11.993
ggish	-11.993
▁Season	-11.993
▁absurdity	-11.993
leese	-11.9931
▁cellar	-11.9931
relieved	-11.9931
COUGH	-11.9931
▁workplace	-11.9932
▁robe	-11.9932
▁Alone	-11.9932
▁Keir	-11.9932
▁rott	-11.9932
▁Prat	-11.9933
▁Skeletor	-11.9933
▁Quin	-11.9933
▁Starling	-11.9933
tatham	-11.9934
▁fright	-11.9934
▁winter	-11.9935
▁junkie	-11.9935
nchant	-11.9935
▁unconscious	-11.9936
▁Vita	-11.9936
▁Karen	-11.9936
▁OFF	-11.9936
▁coverage	-11.9936
▁letdown	-11.9937
▁cartoonish	-11.9937
▁enthusiastic	-11.9937
▁billion	-11.9938
▁Dino	-11.9938
▁Hawt	-11.9938
ixel	-11.9938
▁booth	-11.9938
▁invok	-11.9939
▁peel	-11.9939
▁Pope	-11.9941
▁droll	-11.9942
▁fuel	-11.9942
▁Newton	-11.9943
ija	-11.9945
▁poi	-11.9945
▁Yup	-11.9945
rwin	-11.9946
banging	-11.9946
▁Lina	-11.9947
▁Boat	-11.9947
▁grip	-11.9948
▁Vul	-11.9949
▁milk	-11.9949
▁Lake	-11.995
▁Santa	-11.995
▁Zone	-11.9951
Dellamor	-11.9952
▁snaps	-11.9953
▁smuggl	-11.9956
▁Station	-11.9961
▁Line	-11.9963
egated	-11.9965
▁arouse	-11.9967
Bill	-11.9968
oison	-11.9973
▁Photo	-11.9974
▁Reec	-11.9976
▁mastermind	-11.9976
▁snapp	-11.9977
competence	-11.9982
Sinc	-11.9983
characterisation	-11.9986
▁Club	-11.9987
plifting	-11.9988
▁mutat	-11.9993
▁weep	-11.9995
Angelica	-11.9998
▁rotat	-12.0002
▁dispose	-12.0013
▁gasp	-12.0014
▁fluff	-12.0016
Jeff	-12.0016
melodi	-12.002
▁communication	-12.0023
▁Ferr	-12.0029
rified	-12.003
▁intend	-12.0036
▁Nati	-12.0037
1959	-12.0045
mination	-12.0053
withstand	-12.0055
Airport	-12.0058
tome	-12.0063
graphically	-12.0085
▁hottie	-12.0089
▁mystic	-12.0091
pine	-12.0099
sugar	-12.0108
▁slippe	-12.011
▁delightful	-12.0128
▁Suppo	-12.016
▁Gimm	-12.0161
RIP	-12.0187
▁hail	-12.0188
methodical	-12.0196
▁sparkle	-12.0197
Aunt	-12.0201
satisfied	-12.0213
▁bush	-12.0228
▁Irvin	-12.0236
Sea	-12.0238
▁experienc	-12.0269
▁exam	-12.0284
84	-12.0291
▁transferr	-12.0309
cept	-12.031
▁Jov	-12.0314
ironically	-12.0326
▁confine	-12.0346
lways	-12.0369
Cause	-12.0381
unny	-12.0382
▁irr	-12.0394
TION	-12.0407
critical	-12.0421
lsen	-12.0429
OH	-12.0441
Granted	-12.0443
▁Rubi	-12.0452
▁hypo	-12.0484
untle	-12.0497
▁allud	-12.0508
riff	-12.0526
issa	-12.058
Score	-12.0592
▁Antonio	-12.0594
Hav	-12.0637
▁emerg	-12.0665
88	-12.0687
tuning	-12.07
55	-12.0709
▁Nak	-12.0817
peration	-12.0837
dealer	-12.0861
▁hug	-12.0931
▁nav	-12.0939
▁Vik	-12.0949
edition	-12.095
ancelled	-12.0962
characterization	-12.0981
▁smok	-12.1007
avan	-12.1011
▁remov	-12.1019
shaped	-12.1065
pocalypse	-12.11
LION	-12.1133
Boris	-12.1144
Polar	-12.121
Gener	-12.1277
novelist	-12.1356
alented	-12.1411
iggs	-12.1422
▁Reserv	-12.1425
Belt	-12.145
olent	-12.1454
▁recit	-12.1552
▁net	-12.1713
grad	-12.1726
▁criticiz	-12.18
LAM	-12.1807
▁boggl	-12.1877
EE	-12.1897
four	-12.1926
awaken	-12.1937
▁Driv	-12.1962
▁vibra	-12.2087
▁scrap	-12.2122
tribution	-12.218
▁prais	-12.2245
▁remarkabl	-12.2365
quarters	-12.2397
IKE	-12.2401
believers	-12.241
throb	-12.2451
▁bogg	-12.2475
▁Rando	-12.25
▁hypocri	-12.2512
realistic	-12.2532
speak	-12.2566
▁flirt	-12.2637
OUR	-12.2649
solved	-12.2708
reacher	-12.2723
▁Victor	-12.2818
▁collaborat	-12.2856
cross	-12.2979
▁survival	-12.2993
ppropriate	-12.3034
nimal	-12.3047
luded	-12.3049
▁Recommend	-12.3061
oxic	-12.3067
▁(195	-12.3093
lift	-12.3094
▁Gei	-12.3097
▁Marti	-12.3099
Chris	-12.3102
OST	-12.3112
Humanit	-12.3132
▁figur	-12.3134
▁relat	-12.3141
▁grea	-12.3146
rooked	-12.3155
ditional	-12.3157
lurred	-12.3162
▁indulg	-12.3168
▁brillian	-12.3169
imately	-12.317
▁stumbl	-12.3171
▁lyric	-12.3171
collect	-12.3171
cream	-12.3172
America	-12.3173
▁mechanic	-12.3184
▁uninterest	-12.3186
Patterson	-12.3186
Warren	-12.3186
Davies	-12.3186
traditional	-12.3186
built	-12.3186
clone	-12.3187
Boston	-12.3187
Almost	-12.3187
engine	-12.3187
Down	-12.3187
Robot	-12.3187
Crosby	-12.3188
Laura	-12.3188
Sometimes	-12.3188
importance	-12.3188
sufficient	-12.3188
Ricci	-12.3188
introduce	-12.3188
Lestat	-12.3188
Worth	-12.3188
Masters	-12.3188
storm	-12.3188
Worst	-12.3188
Piranha	-12.3188
sympathetic	-12.3188
blowing	-12.3189
Danny	-12.3189
Blue	-12.3189
Special	-12.3189
Rather	-12.3189
controll	-12.3189
Mind	-12.3189
Carol	-12.3189
Satan	-12.3189
addict	-12.3189
Strange	-12.3189
spoiler	-12.3189
Apparently	-12.3189
vampire	-12.319
Terrible	-12.319
Roger	-12.319
Life	-12.319
People	-12.319
South	-12.319
Evil	-12.319
ghost	-12.319
witness	-12.319
Stupid	-12.319
Which	-12.319
current	-12.319
Thomas	-12.319
climax	-12.319
memorable	-12.319
promising	-12.319
intelligent	-12.319
High	-12.319
Seagal	-12.319
track	-12.319
Jennifer	-12.319
emotional	-12.319
genius	-12.319
appear	-12.319
culture	-12.319
dancing	-12.319
student	-12.319
mysterious	-12.319
Story	-12.319
discover	-12.3191
focus	-12.3191
creature	-12.3191
standard	-12.3191
amount	-12.3191
typical	-12.3191
Scott	-12.3191
British	-12.3191
murder	-12.3191
happen	-12.3191
blood	-12.3191
children	-12.3191
	-12.3191
women	-12.3191
Hollywood	-12.3191
family	-12.3191
terror	-12.3191
DVD	-12.3191
child	-12.3191
cheesy	-12.3191
Film	-12.3191
would	-12.3191
support	-12.3192
dumb	-12.3192
camp	-12.3192
opening	-12.3192
Martin	-12.3192
brief	-12.3193
sync	-12.3193
crack	-12.3193
weird	-12.3193
▁manipulat	-12.3195
nothing	-12.3195
Famil	-12.3197
▁smug	-12.3198
Skip	-12.3203
▁happi	-12.321
▁posse	-12.3211
▁essential	-12.3212
stock	-12.3218
▁doubl	-12.3219
▁craze	-12.3219
▁improvise	-12.322
ology	-12.3221
▁extraordinar	-12.3224
tempted	-12.3224
▁jealous	-12.3225
sensiti	-12.3225
▁Bibl	-12.3229
▁Incident	-12.3229
▁Terribl	-12.3229
cademy	-12.3238
▁repetiti	-12.3239
▁historic	-12.3243
▁consume	-12.3243
OLO	-12.3244
▁Reggi	-12.3244
▁definiti	-12.3246
▁Singapore	-12.3246
▁Belgi	-12.3246
cognition	-12.3247
▁imagina	-12.3247
▁Rabb	-12.3248
▁nausea	-12.3248
annibal	-12.3248
▁terrifi	-12.3248
▁recogni	-12.3248
▁marvel	-12.3249
survivor	-12.3249
sensical	-12.3249
rofessional	-12.3249
erformance	-12.3249
▁repuls	-12.325
pisode	-12.325
▁impersona	-12.325
▁contemplati	-12.325
ontrast	-12.325
structed	-12.325
asterpiece	-12.325
convenien	-12.325
kowski	-12.325
▁hysteri	-12.325
inority	-12.3251
bbling	-12.3251
▁influ	-12.3251
eteran	-12.3251
frozen	-12.3251
anticipat	-12.3251
▁Carpenter	-12.3251
▁Chaplin	-12.3251
▁Excellen	-12.3251
▁Gurdjieff	-12.3251
▁Harryhausen	-12.3251
▁JACK	-12.3251
▁Lampoon	-12.3251
▁Macchio	-12.3251
▁Sunderland	-12.3251
▁genocid	-12.3251
▁instruction	-12.3251
9/11	-12.3251
AVOID	-12.3251
Assault	-12.3251
Braveheart	-12.3251
Depardieu	-12.3251
Firetrap	-12.3251
Happily	-12.3251
Jarmusch	-12.3251
Kayako	-12.3251
LENCE	-12.3251
Lorenzo	-12.3251
Magnolia	-12.3251
McCambridge	-12.3251
Napoleon	-12.3251
SPACE	-12.3251
Silkk	-12.3251
Splatter	-12.3251
Swindle	-12.3251
WARNING	-12.3251
Zipperface	-12.3251
congruous	-12.3251
eighbour	-12.3251
engrossing	-12.3251
ignorance	-12.3251
indestructible	-12.3251
mexican	-12.3251
ockumentary	-12.3251
shudder	-12.3251
temporarily	-12.3251
▁"11:11"	-12.3251
▁(1994)	-12.3251
▁(1997)	-12.3251
▁(1998)	-12.3251
▁1928	-12.3251
▁1958	-12.3251
▁1967	-12.3251
▁1971	-12.3251
▁1994	-12.3251
▁1997	-12.3251
▁Admiral	-12.3251
▁Adventure	-12.3251
▁Agren	-12.3251
▁Aiello	-12.3251
▁Amityville	-12.3251
▁Audrey	-12.3251
▁Augenstein	-12.3251
▁Balderson	-12.3251
▁Beautiful	-12.3251
▁Berkley	-12.3251
▁Bloodstone	-12.3251
▁Buechler	-12.3251
▁CHEESE	-12.3251
▁Capshaw	-12.3251
▁Cellular	-12.3251
▁Coceise	-12.3251
▁Colloca	-12.3251
▁Confidential	-12.3251
▁Continu	-12.3251
▁Corbett	-12.3251
▁Coscarelli	-12.3251
▁Costello	-12.3251
▁DARK	-12.3251
▁Dangerfield	-12.3251
▁December	-12.3251
▁Deneuve	-12.3251
▁Deodato	-12.3251
▁Depression	-12.3251
▁Diamond	-12.3251
▁EARTH	-12.3251
▁Ephron	-12.3251
▁Evidently	-12.3251
▁Farmiga	-12.3251
▁Fehrman	-12.3251
▁Filipino	-12.3251
▁Flavia	-12.3251
▁Footsoldier	-12.3251
▁Frontier	-12.3251
▁GHOSTHOUSE	-12.3251
▁GIRL	-12.3251
▁Galaxy	-12.3251
▁Gangster	-12.3251
▁Garbage	-12.3251
▁Geeson	-12.3251
▁Golubeva	-12.3251
▁HAPPEN	-12.3251
▁Haiduk	-12.3251
▁Hallmark	-12.3251
▁Haraldur	-12.3251
▁Harriet	-12.3251
▁Hindi	-12.3251
▁Hirsch	-12.3251
▁Incredible	-12.3251
▁Interlude	-12.3251
▁Jamukha	-12.3251
▁KNOW	-12.3251
▁Karpathy	-12.3251
▁Kieslowski	-12.3251
▁Kincaid	-12.3251
▁Kristy	-12.3251
▁LITTLE	-12.3251
▁Leatherface	-12.3251
▁Leguizamo	-12.3251
▁Lesbian	-12.3251
▁Mantegna	-12.3251
▁McCormack	-12.3251
▁McDowell	-12.3251
▁Melbourne	-12.3251
▁Mercur	-12.3251
▁Minotaur	-12.3251
▁Mirren	-12.3251
▁Motwani	-12.3251
▁Mountain	-12.3251
▁Murdock	-12.3251
▁OAAG	-12.3251
▁Odyssey	-12.3251
▁Oprah	-12.3251
▁Osbourne	-12.3251
▁Oswalt	-12.3251
▁POLI	-12.3251
▁Phantasm	-12.3251
▁Pistols	-12.3251
▁Redgrave	-12.3251
▁Rennes	-12.3251
▁Richie	-12.3251
▁Ridiculous	-12.3251
▁Sabbath	-12.3251
▁Sanitarium	-12.3251
▁Scotland	-12.3251
▁Screenplay	-12.3251
▁Scrimm	-12.3251
▁Sebastien	-12.3251
▁Seinfeld	-12.3251
▁Seltzer	-12.3251
▁Service	-12.3251
▁Shepherd	-12.3251
▁Sherawat	-12.3251
▁Siberia	-12.3251
▁Sobieski	-12.3251
▁Spirit	-12.3251
▁Steiger	-12.3251
▁Sullivan	-12.3251
▁Surprise	-12.3251
▁Surprising	-12.3251
▁Sweeney	-12.3251
▁Switzerland	-12.3251
▁TANDEM	-12.3251
▁THINK	-12.3251
▁Tamblyn	-12.3251
▁Tanyusha	-12.3251
▁Teenage	-12.3251
▁Thompson	-12.3251
▁Thrill	-12.3251
▁Tibbs	-12.3251
▁Translation	-12.3251
▁Tripplehorn	-12.3251
▁Truffaut	-12.3251
▁Turtle	-12.3251
▁Varga	-12.3251
▁Varney	-12.3251
▁Violet	-12.3251
▁WARRIOR	-12.3251
▁WITCH	-12.3251
▁WORLD	-12.3251
▁Webmaster	-12.3251
▁aberration	-12.3251
▁accompany	-12.3251
▁accuracy	-12.3251
▁anesthesia	-12.3251
▁artifact	-12.3251
▁aspirations	-12.3251
▁assumption	-12.3251
▁athletic	-12.3251
▁attorney	-12.3251
▁audacious	-12.3251
▁autobiograph	-12.3251
▁automobile	-12.3251
▁bankrupt	-12.3251
▁bundle	-12.3251
▁caliber	-12.3251
▁candidate	-12.3251
▁catapult	-12.3251
▁centuries	-12.3251
▁championship	-12.3251
▁chauffeur	-12.3251
▁chronological	-12.3251
▁chubby	-12.3251
▁circuits	-12.3251
▁clutch	-12.3251
▁cocktail	-12.3251
▁comedienne	-12.3251
▁comprehend	-12.3251
▁conjure	-12.3251
▁contemplate	-12.3251
▁controversy	-12.3251
▁conversion	-12.3251
▁cucumber	-12.3251
▁decrepit	-12.3251
▁demographic	-12.3251
▁dentures	-12.3251
▁departure	-12.3251
▁deposit	-12.3251
▁descriptive	-12.3251
▁despair	-12.3251
▁diabolic	-12.3251
▁dialect	-12.3251
▁discernible	-12.3251
▁disconcerting	-12.3251
▁dispassionate	-12.3251
▁disposable	-12.3251
▁disregard	-12.3251
▁dynamite	-12.3251
▁electrocution	-12.3251
▁elusive	-12.3251
▁enclave	-12.3251
▁enormous	-12.3251
▁entrepreneur	-12.3251
▁episodic	-12.3251
▁eternity	-12.3251
▁execs	-12.3251
▁exemplifie	-12.3251
▁extensive	-12.3251
▁extremist	-12.3251
▁fiddle	-12.3251
▁foreshadowing	-12.3251
▁frigid	-12.3251
▁generator	-12.3251
▁gibberish	-12.3251
▁gleeful	-12.3251
▁glorification	-12.3251
▁glutton	-12.3251
▁gradually	-12.3251
▁grandparents	-12.3251
▁handicapped	-12.3251
▁hijinks	-12.3251
▁hindsight	-12.3251
▁hobby	-12.3251
▁hooligan	-12.3251
▁icicle	-12.3251
▁immature	-12.3251
▁immeasurabl	-12.3251
▁immoral	-12.3251
▁inadvertently	-12.3251
▁incessant	-12.3251
▁inconceivabl	-12.3251
▁inexcusable	-12.3251
▁infidelity	-12.3251
▁infomercial	-12.3251
▁initiation	-12.3251
▁innuendo	-12.3251
▁insignificant	-12.3251
▁interchangeable	-12.3251
▁invaders	-12.3251
▁irresistibl	-12.3251
▁jeep	-12.3251
▁jeopard	-12.3251
▁karaoke	-12.3251
▁knuckle	-12.3251
▁lambast	-12.3251
▁lambs	-12.3251
▁loneliness	-12.3251
▁lurid	-12.3251
▁magazine	-12.3251
▁manuscript	-12.3251
▁marijuana	-12.3251
▁martyr	-12.3251
▁maudlin	-12.3251
▁mercenaries	-12.3251
▁merciless	-12.3251
▁misguided	-12.3251
▁misogynist	-12.3251
▁mitigat	-12.3251
▁monolith	-12.3251
▁monotonous	-12.3251
▁monstrosity	-12.3251
▁narcissistic	-12.3251
▁narcotic	-12.3251
▁necklace	-12.3251
▁necrophilia	-12.3251
▁nipple	-12.3251
▁nostalgic	-12.3251
▁nostril	-12.3251
▁obligation	-12.3251
▁observed	-12.3251
▁omitted	-12.3251
▁oppress	-12.3251
▁optimistic	-12.3251
▁paranoid	-12.3251
▁parodies	-12.3251
▁peculiar	-12.3251
▁perversion	-12.3251
▁playwright	-12.3251
▁plentiful	-12.3251
▁pompous	-12.3251
▁portrait	-12.3251
▁pregnancy	-12.3251
▁preposterous	-12.3251
▁procedure	-12.3251
▁promiscu	-12.3251
▁psychedeli	-12.3251
▁publish	-12.3251
▁pyrotechnics	-12.3251
▁redundan	-12.3251
▁renegade	-12.3251
▁repellent	-12.3251
▁reproduce	-12.3251
▁revolting	-12.3251
▁ricochet	-12.3251
▁rudimentary	-12.3251
▁sandwiches	-12.3251
▁satirical	-12.3251
▁satisfactorily	-12.3251
▁schedule	-12.3251
▁screech	-12.3251
▁sculpt	-12.3251
▁seduce	-12.3251
▁shriek	-12.3251
▁silliness	-12.3251
▁skateboard	-12.3251
▁sleuth	-12.3251
▁smiling	-12.3251
▁sophistication	-12.3251
▁speleologist	-12.3251
▁sporadic	-12.3251
▁stupefying	-12.3251
▁submission	-12.3251
▁suicidal	-12.3251
▁surrender	-12.3251
▁symphon	-12.3251
▁synchronize	-12.3251
▁transcend	-12.3251
▁transplant	-12.3251
▁tyrant	-12.3251
▁ubiquitous	-12.3251
▁unappealing	-12.3251
▁unappreciat	-12.3251
▁underwhelm	-12.3251
▁undress	-12.3251
▁uneasy	-12.3251
▁unimaginably	-12.3251
▁university	-12.3251
▁unlucky	-12.3251
▁unprofessional	-12.3251
▁venom	-12.3251
▁verdict	-12.3251
▁versatile	-12.3251
▁videostore	-12.3251
▁vignettes	-12.3251
▁volleyball	-12.3251
▁wardrobe	-12.3251
▁whisper	-12.3251
▁worldwide	-12.3251
ATOR	-12.3251
Airplane	-12.3251
Armageddon	-12.3251
RoboCop	-12.3251
constipat	-12.3251
oogeyman	-12.3251
▁(194	-12.3251
▁(1957)	-12.3251
▁1975	-12.3251
▁Bamford	-12.3251
▁CLEAR	-12.3251
▁Costner	-12.3251
▁Darnell	-12.3251
▁Druid	-12.3251
▁Kafka	-12.3251
▁Kirby	-12.3251
▁Wrestl	-12.3251
▁affectionate	-12.3251
▁brawl	-12.3251
▁catatoni	-12.3251
▁disobey	-12.3251
▁election	-12.3251
▁fierce	-12.3251
▁infatuat	-12.3251
▁irritation	-12.3251
▁liquid	-12.3251
▁metaphor	-12.3251
▁satisfact	-12.3251
▁sniper	-12.3251
▁tyrann	-12.3251
▁violation	-12.3251
Pitiful	-12.3251
angaroo	-12.3251
incarnate	-12.3251
perverted	-12.3251
▁Banning	-12.3251
▁Bellingham	-12.3251
▁Brilliant	-12.3251
▁DEMON	-12.3251
▁Deserve	-12.3251
▁Dunaway	-12.3251
▁Enemy	-12.3251
▁Ezio	-12.3251
▁FACT	-12.3251
▁FEAR	-12.3251
▁Guinea	-12.3251
▁Kutcher	-12.3251
▁McCoy	-12.3251
▁Raimi	-12.3251
▁Roeves	-12.3251
▁Sharon	-12.3251
▁Smoke	-12.3251
▁Soldier	-12.3251
▁Soviet	-12.3251
▁Straight	-12.3251
▁Suspense	-12.3251
▁Swank	-12.3251
▁Thurman	-12.3251
▁Tilney	-12.3251
▁acquit	-12.3251
▁amplified	-12.3251
▁bathtub	-12.3251
▁debacle	-12.3251
▁falsify	-12.3251
▁frantic	-12.3251
▁gaudy	-12.3251
▁handcuff	-12.3251
▁implement	-12.3251
▁laboured	-12.3251
▁laptop	-12.3251
▁morph	-12.3251
▁nubile	-12.3251
▁pepper	-12.3251
▁preserve	-12.3251
▁regime	-12.3251
▁repair	-12.3251
▁resonate	-12.3251
▁reversal	-12.3251
▁shortcomings	-12.3251
▁squander	-12.3251
▁unresolved	-12.3251
▁untouch	-12.3251
▁warfare	-12.3251
BWP	-12.3251
kilter	-12.3251
▁Ameche	-12.3251
▁Britney	-12.3251
▁Congress	-12.3251
▁HORR	-12.3251
▁Hackers	-12.3251
▁Hamlet	-12.3251
▁Keith	-12.3251
▁NEED	-12.3251
▁Problem	-12.3251
▁RKO	-12.3251
▁Rogan	-12.3251
▁Scientist	-12.3251
▁Streep	-12.3251
▁Texan	-12.3251
▁complement	-12.3251
▁detract	-12.3251
▁enlighten	-12.3251
▁evoke	-12.3251
▁invasion	-12.3251
▁lavish	-12.3251
▁mortal	-12.3251
▁niche	-12.3251
▁potato	-12.3251
▁smear	-12.3251
▁snarl	-12.3251
▁toddler	-12.3251
▁unsubtl	-12.3251
▁victori	-12.3251
▁vocal	-12.3251
xorcism	-12.3251
▁Aniston	-12.3251
▁Cadwell	-12.3251
▁Diaz	-12.3251
▁Korean	-12.3251
▁Largo	-12.3251
▁ROB	-12.3251
▁Regina	-12.3251
▁Robbins	-12.3251
▁Showgirls	-12.3251
▁Spook	-12.3251
▁VCR	-12.3251
▁Vader	-12.3251
▁Westwing	-12.3251
▁Yoko	-12.3251
▁decoration	-12.3251
▁dentist	-12.3251
▁disrupti	-12.3251
▁dissecti	-12.3251
▁fraud	-12.3251
▁galax	-12.3251
▁polished	-12.3251
▁session	-12.3251
▁spiral	-12.3251
▁statut	-12.3251
▁unbalanced	-12.3251
Focus	-12.3251
IBLE	-12.3251
scrambl	-12.3251
trusive	-12.3251
▁$3.00	-12.3251
▁AIDS	-12.3251
▁Hoog	-12.3251
▁Payton	-12.3251
▁Peep	-12.3251
▁Sterling	-12.3251
▁astounding	-12.3251
▁cycle	-12.3251
▁emote	-12.3251
▁empti	-12.3251
▁excru	-12.3251
▁leaf	-12.3251
▁mafia	-12.3251
▁reunion	-12.3251
▁Benito	-12.3251
▁Currie	-12.3251
▁Jolie	-12.3251
▁Palance	-12.3251
▁Saints	-12.3251
▁balloon	-12.3251
▁commend	-12.3251
▁grandeur	-12.3251
▁lovable	-12.3251
▁obtain	-12.3251
▁polishing	-12.3251
▁smack	-12.3251
▁strive	-12.3251
▁throne	-12.3251
▁Firth	-12.3251
▁Sinbad	-12.3251
▁Smits	-12.3251
▁Wynn	-12.3251
▁horde	-12.3251
▁insanity	-12.3251
▁polite	-12.3251
▁superimpose	-12.3251
▁wobbl	-12.3251
IFE	-12.3251
gymnast	-12.3251
retitled	-12.3251
▁Bardem	-12.3251
▁CNN	-12.3251
▁bookstore	-12.3251
▁coax	-12.3251
▁muscle	-12.3251
▁platform	-12.3251
▁rookie	-12.3251
▁Dahl	-12.3251
▁barrier	-12.3251
▁captive	-12.3251
▁swordsmen	-12.3251
Braindead	-12.3251
▁Michalkov	-12.3251
▁Tunes	-12.3251
▁cyber	-12.3251
▁Carrell	-12.3251
▁Schell	-12.3251
▁desperation	-12.3251
▁homeschooler	-12.3251
▁snoop	-12.3251
-47	-12.3251
Brutus	-12.3251
Godzilla	-12.3251
Shower	-12.3251
▁$100.	-12.3251
▁Collins	-12.3251
▁Watts	-12.3251
▁Woodroe	-12.3251
▁headache	-12.3251
▁juggl	-12.3251
▁dishon	-12.3251
-17	-12.3251
▁Learn	-12.3251
▁garage	-12.3251
▁shtick	-12.3251
▁socialite	-12.3251
UPP	-12.3251
wield	-12.3251
▁Abhi	-12.3251
▁composition	-12.3251
▁shoddi	-12.3251
▁deadpan	-12.3251
▁knives	-12.3251
loodrayne	-12.3251
▁Cream	-12.3251
▁Elena	-12.3251
▁banter	-12.3251
▁Anything	-12.3251
▁Extra	-12.3251
▁captions	-12.3251
▁stride	-12.3251
druid	-12.3251
▁Weather	-12.3251
▁Graves	-12.3251
groovy	-12.3251
▁Johnnie	-12.3251
▁heritage	-12.3251
▁irreveren	-12.3251
▁lurk	-12.3251
▁waddl	-12.3251
▁Thanksgiving	-12.3251
Gabby	-12.3251
▁Helsing	-12.3251
▁medals	-12.3251
radical	-12.3251
▁Ariel	-12.3251
▁sirens	-12.3251
▁underscore	-12.3251
▁boobs	-12.3251
▁misfit	-12.3251
▁partially	-12.3251
▁tyke	-12.3251
▁$10	-12.3251
▁Schei	-12.3251
▁Walsh	-12.3251
▁Small	-12.3251
▁estate	-12.3251
▁Combs	-12.3251
▁Preston	-12.3251
▁displeas	-12.3251
▁Ebert	-12.3251
▁induce	-12.3251
▁BIG	-12.3251
▁shuffl	-12.3251
▁HIS	-12.3251
▁Breck	-12.3251
▁Limit	-12.3251
▁Child	-12.3251
▁lamps	-12.3251
Rampage	-12.3251
testant	-12.3251
▁facility	-12.3251
▁stirr	-12.3251
▁Tyne	-12.3251
▁Bukowski	-12.3251
▁Elwes	-12.3251
prude	-12.3251
▁exceed	-12.3251
capacit	-12.3251
▁pumpkin	-12.3251
▁staple	-12.3251
▁expedition	-12.3251
legit	-12.3251
▁Henson	-12.3251
Namoi	-12.3251
magneti	-12.3251
▁cotton	-12.3251
▁entity	-12.3251
▁Quebec	-12.3251
▁Busey	-12.3251
▁whimsical	-12.3251
▁integrated	-12.3252
▁gown	-12.3252
▁newcomer	-12.3252
horiz	-12.3252
▁liberat	-12.3252
▁Casey	-12.3252
▁Easy	-12.3252
▁droning	-12.3252
▁headlights	-12.3252
▁stead	-12.3252
Barbera	-12.3252
Homecoming	-12.3252
▁centre	-12.3252
▁torrent	-12.3252
nazi	-12.3252
▁grey	-12.3252
▁Henri	-12.3252
▁fingerprint	-12.3252
leasing	-12.3252
Revelation	-12.3252
▁Anderson	-12.3252
▁Kerr	-12.3252
▁adulthood	-12.3252
Supposedly	-12.3252
Repeat	-12.3252
▁neut	-12.3252
▁indulgence	-12.3252
▁retrospect	-12.3252
▁6.3	-12.3252
▁apologize	-12.3252
▁Laughabl	-12.3252
▁butterfly	-12.3252
▁broadcast	-12.3252
▁Natas	-12.3252
wracking	-12.3252
Micheal	-12.3252
▁counterpart	-12.3252
▁gym	-12.3252
iracle	-12.3252
▁implicate	-12.3252
▁Style	-12.3252
▁reruns	-12.3252
▁impersonation	-12.3252
▁proportions	-12.3252
▁updated	-12.3252
▁Danning	-12.3252
▁revell	-12.3252
▁purpo	-12.3252
▁Normally	-12.3252
ritics	-12.3252
▁panning	-12.3252
▁shaft	-12.3252
depriv	-12.3252
▁detest	-12.3252
▁gentlemen	-12.3252
ontains	-12.3252
▁outdated	-12.3252
▁totalitarianism	-12.3252
▁rogue	-12.3252
▁Andrei	-12.3252
banana	-12.3253
insurance	-12.3253
ggins	-12.3253
▁Posses	-12.3253
Appear	-12.3253
▁journalis	-12.3253
▁mags	-12.3253
▁"0"	-12.3253
▁Boogen	-12.3253
▁Waves	-12.3253
atraz	-12.3253
▁Rambo	-12.3253
▁sancti	-12.3253
▁farmhouse	-12.3253
▁greet	-12.3253
▁Popul	-12.3253
▁Philippe	-12.3253
▁debate	-12.3253
▁italian	-12.3253
▁Lisa	-12.3254
ddling	-12.3254
▁reveren	-12.3254
▁Madden	-12.3254
mingway	-12.3254
Wenders	-12.3254
▁melee	-12.3254
▁finesse	-12.3254
▁Lovecraft	-12.3254
▁WEA	-12.3255
conform	-12.3255
▁deny	-12.3255
▁duped	-12.3255
array	-12.3256
▁sauc	-12.3256
▁simula	-12.3256
eague	-12.3256
Morita	-12.3256
Mafia	-12.3257
Comedian	-12.3257
▁Duval	-12.3257
▁regal	-12.3257
▁Falco	-12.3258
▁Anato	-12.3258
Barfly	-12.3258
▁Hicks	-12.3258
oliday	-12.3258
▁Domin	-12.3258
▁Ashle	-12.3259
▁Eberl	-12.3259
▁Magic	-12.3259
▁Sinu	-12.3259
nvinci	-12.3259
▁assert	-12.326
balanc	-12.326
▁Floren	-12.326
eanor	-12.3261
▁Dunn	-12.3261
RIES	-12.3261
▁halt	-12.3261
nterminabl	-12.3261
committee	-12.3262
activi	-12.3262
▁Office	-12.3263
AID	-12.3264
▁jej	-12.3264
HAN	-12.3265
▁zip	-12.3265
▁summari	-12.3267
ummies	-12.3268
AIN	-12.3269
oozy	-12.3269
equiem	-12.327
▁chemi	-12.3271
Present	-12.3274
nitial	-12.3274
waitress	-12.3274
olkien	-12.3279
▁rearrang	-12.3282
evine	-12.3285
▁sequ	-12.3288
▁rewrite	-12.3288
▁BOTH	-12.329
retenti	-12.3292
personnel	-12.3293
trateg	-12.3294
▁jog	-12.3295
trude	-12.3297
ncill	-12.3297
▁clash	-12.3298
▁Hayd	-12.3299
Spin	-12.33
arried	-12.3302
eriod	-12.3305
▁Mini	-12.3305
▁endorse	-12.3312
juries	-12.3315
fusion	-12.3317
▁tribu	-12.3317
acles	-12.3328
▁airliner	-12.3332
Clubbe	-12.3335
▁impos	-12.3345
▁concede	-12.3351
1969	-12.3354
▁solar	-12.3362
▁ku	-12.338
▁lamenta	-12.3389
▁elude	-12.3405
Twister	-12.3416
▁rambl	-12.3421
▁radioactiv	-12.3426
▁Francisc	-12.3428
▁swip	-12.3431
Warning	-12.3444
Basi	-12.3446
▁renam	-12.3447
▁Clar	-12.3449
▁challeng	-12.3465
1970	-12.3469
denominator	-12.3481
▁Apn	-12.3481
MSTied	-12.3485
▁Independen	-12.352
ipes	-12.3562
Congo	-12.357
▁stereotyp	-12.3571
ooned	-12.3689
dependent	-12.3691
▁Marqu	-12.3717
Chain	-12.3747
▁[195	-12.3748
gree	-12.3816
freeze	-12.3855
scrape	-12.3864
Help	-12.3875
Marc	-12.3877
▁mangl	-12.4066
define	-12.4134
Truth	-12.4181
1800	-12.4247
Rocket	-12.4254
▁sampl	-12.4391
▁deserv	-12.4423
▁Kara	-12.4519
▁purchas	-12.4574
▁corporat	-12.4709
Space	-12.4785
▁dominat	-12.4829
▁divorc	-12.4994
skirt	-12.5358
Forrest	-12.5415
▁collecti	-12.5652
▁substitut	-12.5701
Kai	-12.5762
boggling	-12.6097
▁reviv	-12.6102
▁ravin	-12.6123
▁pathologi	-12.6279
divine	-12.63
getting	-12.663
▁classifi	-12.6639
▁Trav	-12.6938
▁[19	-12.6967
believable	-12.6973
▁stabili	-12.7156
favorable	-12.7168
▁reassur	-12.7187
ECT	-12.7224
stalker	-12.7299
finement	-12.734
assenger	-12.7733
ippies	-12.7798
matically	-12.7959
writes	-12.7961
otherhood	-12.7963
▁circumstance	-12.7975
▁Capital	-12.7993
▁introduc	-12.8016
lternative	-12.8026
ltogether	-12.8031
trocious	-12.8038
tmosphere	-12.804
1/2	-12.8132
omicide	-12.8138
▁simpl	-12.8148
▁relevan	-12.8162
▁significan	-12.8163
▁occu	-12.8164
▁independen	-12.8168
Angelo	-12.8168
mplify	-12.8171
niqu	-12.8178
▁tabl	-12.8182
developed	-12.8182
▁relativ	-12.8183
inspired	-12.8185
likable	-12.8185
translat	-12.8186
restrained	-12.8187
TIME	-12.8187
skeleton	-12.8187
worship	-12.8187
WHY	-12.8187
Douglas	-12.8188
Third	-12.8188
Usually	-12.8188
happily	-12.8188
spoken	-12.8188
Tuscan	-12.8188
folk	-12.8188
distinguish	-12.8188
recorded	-12.8188
Hopper	-12.8188
Major	-12.8188
Terror	-12.8188
Sleep	-12.8188
Carlos	-12.8189
Mongolian	-12.8189
conceived	-12.8189
Claude	-12.8189
Neither	-12.8189
club	-12.8189
Franco	-12.8189
Probably	-12.8189
excitement	-12.8189
hippie	-12.8189
Think	-12.819
abandoned	-12.819
tortured	-12.819
White	-12.819
hundreds	-12.819
plastic	-12.819
Road	-12.819
intense	-12.819
THIS	-12.819
Read	-12.819
Evan	-12.819
Horrible	-12.819
Obviously	-12.819
engaging	-12.819
sophisticated	-12.819
ñ	-12.822
»	-12.8251
ç	-12.8251
«	-14.2708
́	-14.2709
å	-14.271
	-14.2711
	-14.2712
‘	-14.2713
£	-14.2714
^	-14.2715
“	-14.2716
q	-14.2717
